<pad>	0
</s>	0
<s>	0
<unk>	0
<tool_call>	0
<tools>	0
<0x00>	0
<0x01>	0
<0x02>	0
<0x03>	0
<0x04>	0
<0x05>	0
<0x06>	0
<0x07>	0
<0x08>	0
<0x09>	0
<0x0A>	0
<0x0B>	0
<0x0C>	0
<0x0D>	0
<0x0E>	0
<0x0F>	0
<0x10>	0
<0x11>	0
<0x12>	0
<0x13>	0
<0x14>	0
<0x15>	0
<0x16>	0
<0x17>	0
<0x18>	0
<0x19>	0
<0x1A>	0
<0x1B>	0
<0x1C>	0
<0x1D>	0
<0x1E>	0
<0x1F>	0
<0x20>	0
<0x21>	0
<0x22>	0
<0x23>	0
<0x24>	0
<0x25>	0
<0x26>	0
<0x27>	0
<0x28>	0
<0x29>	0
<0x2A>	0
<0x2B>	0
<0x2C>	0
<0x2D>	0
<0x2E>	0
<0x2F>	0
<0x30>	0
<0x31>	0
<0x32>	0
<0x33>	0
<0x34>	0
<0x35>	0
<0x36>	0
<0x37>	0
<0x38>	0
<0x39>	0
<0x3A>	0
<0x3B>	0
<0x3C>	0
<0x3D>	0
<0x3E>	0
<0x3F>	0
<0x40>	0
<0x41>	0
<0x42>	0
<0x43>	0
<0x44>	0
<0x45>	0
<0x46>	0
<0x47>	0
<0x48>	0
<0x49>	0
<0x4A>	0
<0x4B>	0
<0x4C>	0
<0x4D>	0
<0x4E>	0
<0x4F>	0
<0x50>	0
<0x51>	0
<0x52>	0
<0x53>	0
<0x54>	0
<0x55>	0
<0x56>	0
<0x57>	0
<0x58>	0
<0x59>	0
<0x5A>	0
<0x5B>	0
<0x5C>	0
<0x5D>	0
<0x5E>	0
<0x5F>	0
<0x60>	0
<0x61>	0
<0x62>	0
<0x63>	0
<0x64>	0
<0x65>	0
<0x66>	0
<0x67>	0
<0x68>	0
<0x69>	0
<0x6A>	0
<0x6B>	0
<0x6C>	0
<0x6D>	0
<0x6E>	0
<0x6F>	0
<0x70>	0
<0x71>	0
<0x72>	0
<0x73>	0
<0x74>	0
<0x75>	0
<0x76>	0
<0x77>	0
<0x78>	0
<0x79>	0
<0x7A>	0
<0x7B>	0
<0x7C>	0
<0x7D>	0
<0x7E>	0
<0x7F>	0
<0x80>	0
<0x81>	0
<0x82>	0
<0x83>	0
<0x84>	0
<0x85>	0
<0x86>	0
<0x87>	0
<0x88>	0
<0x89>	0
<0x8A>	0
<0x8B>	0
<0x8C>	0
<0x8D>	0
<0x8E>	0
<0x8F>	0
<0x90>	0
<0x91>	0
<0x92>	0
<0x93>	0
<0x94>	0
<0x95>	0
<0x96>	0
<0x97>	0
<0x98>	0
<0x99>	0
<0x9A>	0
<0x9B>	0
<0x9C>	0
<0x9D>	0
<0x9E>	0
<0x9F>	0
<0xA0>	0
<0xA1>	0
<0xA2>	0
<0xA3>	0
<0xA4>	0
<0xA5>	0
<0xA6>	0
<0xA7>	0
<0xA8>	0
<0xA9>	0
<0xAA>	0
<0xAB>	0
<0xAC>	0
<0xAD>	0
<0xAE>	0
<0xAF>	0
<0xB0>	0
<0xB1>	0
<0xB2>	0
<0xB3>	0
<0xB4>	0
<0xB5>	0
<0xB6>	0
<0xB7>	0
<0xB8>	0
<0xB9>	0
<0xBA>	0
<0xBB>	0
<0xBC>	0
<0xBD>	0
<0xBE>	0
<0xBF>	0
<0xC0>	0
<0xC1>	0
<0xC2>	0
<0xC3>	0
<0xC4>	0
<0xC5>	0
<0xC6>	0
<0xC7>	0
<0xC8>	0
<0xC9>	0
<0xCA>	0
<0xCB>	0
<0xCC>	0
<0xCD>	0
<0xCE>	0
<0xCF>	0
<0xD0>	0
<0xD1>	0
<0xD2>	0
<0xD3>	0
<0xD4>	0
<0xD5>	0
<0xD6>	0
<0xD7>	0
<0xD8>	0
<0xD9>	0
<0xDA>	0
<0xDB>	0
<0xDC>	0
<0xDD>	0
<0xDE>	0
<0xDF>	0
<0xE0>	0
<0xE1>	0
<0xE2>	0
<0xE3>	0
<0xE4>	0
<0xE5>	0
<0xE6>	0
<0xE7>	0
<0xE8>	0
<0xE9>	0
<0xEA>	0
<0xEB>	0
<0xEC>	0
<0xED>	0
<0xEE>	0
<0xEF>	0
<0xF0>	0
<0xF1>	0
<0xF2>	0
<0xF3>	0
<0xF4>	0
<0xF5>	0
<0xF6>	0
<0xF7>	0
<0xF8>	0
<0xF9>	0
<0xFA>	0
<0xFB>	0
<0xFC>	0
<0xFD>	0
<0xFE>	0
<0xFF>	0
":	-0
,"	-1
":"	-2
","	-3
re	-4
ti	-5
on	-6
ri	-7
me	-8
{"	-9
de	-10
tion	-11
te	-12
sc	-13
ame	-14
ption	-15
▁t	-16
scri	-17
he	-18
scription	-19
":{"	-20
description	-21
.","	-22
pe	-23
ar	-24
st	-25
}}	-26
▁a	-27
ng	-28
qu	-29
or	-30
ty	-31
name	-32
se	-33
le	-34
red	-35
type	-36
requ	-37
ired	-38
required	-39
▁the	-40
ter	-41
al	-42
ue	-43
nt	-44
tr	-45
ring	-46
▁f	-47
in	-48
▁c	-49
true	-50
par	-51
▁to	-52
string	-53
ters	-54
parame	-55
parameters	-56
▁o	-57
er	-58
}}}	-59
▁s	-60
,{"	-61
ge	-62
ic	-63
▁of	-64
an	-65
}}},{"	-66
The	-67
▁'	-68
ve	-69
di	-70
ur	-71
ate	-72
▁p	-73
},"	-74
ac	-75
li	-76
um	-77
at	-78
▁e	-79
alse	-80
ation	-81
▁or	-82
▁for	-83
il	-84
▁m	-85
false	-86
▁b	-87
▁[	-88
▁re	-89
ro	-90
ab	-91
nd	-92
ss	-93
▁[{"	-94
it	-95
get	-96
ber	-97
',	-98
▁n	-99
▁in	-100
lo	-101
umber	-102
▁w	-103
ce	-104
ch	-105
ment	-106
to	-107
▁u	-108
▁i	-109
et	-110
▁d	-111
able	-112
la	-113
ou	-114
oo	-115
ci	-116
▁se	-117
ing	-118
en	-119
age	-120
fi	-121
time	-122
number	-123
▁de	-124
gu	-125
ments	-126
ck	-127
ont	-128
ice	-129
argu	-130
arguments	-131
id	-132
urre	-133
ho	-134
▁and	-135
▁curre	-136
vice	-137
'.","	-138
list	-139
xt	-140
}}]	-141
▁spe	-142
fic	-143
▁di	-144
▁current	-145
ail	-146
vi	-147
act	-148
▁me	-149
boo	-150
us	-151
ed	-152
ontact	-153
▁st	-154
▁name	-155
om	-156
▁speci	-157
lean	-158
art	-159
ode	-160
boolean	-161
tem	-162
ol	-163
ra	-164
ub	-165
":{	-166
ct	-167
text	-168
}},{"	-169
per	-170
der	-171
}}}]	-172
ne	-173
nti	-174
ser	-175
ount	-176
▁an	-177
heck	-178
her	-179
▁on	-180
es	-181
lay	-182
pp	-183
ha	-184
ptional	-185
ay	-186
ni	-187
ute	-188
min	-189
set	-190
▁g	-191
ance	-192
ding	-193
ly	-194
▁time	-195
ile	-196
▁dis	-197
denti	-198
ad	-199
gh	-200
arch	-201
ul	-202
▁specific	-203
▁ac	-204
▁identi	-205
fier	-206
▁ne	-207
pen	-208
am	-209
ord	-210
si	-211
eve	-212
▁al	-213
date	-214
ack	-215
▁"	-216
loc	-217
one	-218
ak	-219
▁contact	-220
hi	-221
gg	-222
▁I	-223
utes	-224
Optional	-225
que	-226
ght	-227
ting	-228
ure	-229
":{}},{"	-230
▁tr	-231
▁identifier	-232
▁list	-233
ther	-234
mail	-235
Ret	-236
urn	-237
as	-238
ory	-239
▁no	-240
"}}]	-241
▁con	-242
uration	-243
location	-244
un	-245
nique	-246
je	-247
atus	-248
▁unique	-249
ssage	-250
cy	-251
ith	-252
nable	-253
▁with	-254
ssi	-255
Whe	-256
ir	-257
con	-258
ubscription	-259
arget	-260
ard	-261
▁text	-262
rieve	-263
ow	-264
Whether	-265
enable	-266
rom	-267
▁disable	-268
ilter	-269
▁le	-270
lu	-271
sti	-272
reen	-273
screen	-274
vel	-275
for	-276
ted	-277
reate	-278
▁by	-279
ggle	-280
no	-281
":"'	-282
clu	-283
▁v	-284
contact	-285
th	-286
play	-287
gen	-288
Name	-289
Retrieve	-290
ma	-291
enabled	-292
▁li	-293
is	-294
ject	-295
▁au	-296
▁pro	-297
hoto	-298
ery	-299
pdate	-300
▁1	-301
▁from	-302
od	-303
ost	-304
ary	-305
start	-306
▁new	-307
▁ser	-308
▁k	-309
▁so	-310
fe	-311
cent	-312
Retrieves	-313
hare	-314
ress	-315
op	-316
hic	-317
▁min	-318
▁app	-319
ut	-320
toggle	-321
▁service	-322
▁acti	-323
Set	-324
mat	-325
all	-326
ten	-327
Se	-328
action	-329
omp	-330
▁date	-331
ud	-332
Tr	-333
check	-334
ort	-335
▁false	-336
▁ex	-337
▁qu	-338
▁file	-339
du	-340
ction	-341
ast	-342
minder	-343
▁be	-344
clude	-345
tit	-346
nation	-347
dd	-348
▁user	-349
stination	-350
ind	-351
▁per	-352
vity	-353
ant	-354
lete	-355
Get	-356
ssion	-357
ateg	-358
au	-359
ase	-360
mode	-361
▁ro	-362
sh	-363
im	-364
00	-365
vent	-366
dio	-367
":{}}]	-368
▁number	-369
mit	-370
oal	-371
ategory	-372
▁email	-373
pl	-374
el	-375
log	-376
▁device	-377
▁message	-378
ze	-379
True	-380
▁(	-381
ature	-382
file	-383
▁l	-384
▁am	-385
ace	-386
▁ve	-387
▁at	-388
▁location	-389
Re	-390
▁as	-391
minutes	-392
ie	-393
▁mode	-394
▁target	-395
uest	-396
ave	-397
count	-398
▁enable	-399
▁minutes	-400
perature	-401
ver	-402
▁la	-403
ler	-404
▁pe	-405
▁all	-406
temperature	-407
▁ma	-408
cle	-409
day	-410
app	-411
title	-412
▁filter	-413
Check	-414
dia	-415
ations	-416
▁subscription	-417
ns	-418
av	-419
status	-420
mo	-421
form	-422
ans	-423
mer	-424
▁duration	-425
lock	-426
fied	-427
ke	-428
ubject	-429
ake	-430
ata	-431
▁pl	-432
we	-433
hicle	-434
▁event	-435
ore	-436
arm	-437
search	-438
tific	-439
▁screen	-440
ling	-441
▁ho	-442
out	-443
▁he	-444
▁status	-445
",	-446
▁format	-447
word	-448
▁S	-449
▁session	-450
device	-451
▁specified	-452
▁photo	-453
▁my	-454
ts	-455
cip	-456
ine	-457
acti	-458
ork	-459
ates	-460
service	-461
ated	-462
low	-463
▁su	-464
ood	-465
port	-466
create	-467
mary	-468
▁comp	-469
▁rec	-470
).","	-471
▁note	-472
duration	-473
▁C	-474
oc	-475
nsor	-476
▁h	-477
▁item	-478
king	-479
tent	-480
▁is	-481
▁y	-482
ld	-483
▁level	-484
▁vi	-485
De	-486
▁reminder	-487
fa	-488
ummary	-489
Enable	-490
aily	-491
subscription	-492
ient	-493
pro	-494
ys	-495
ive	-496
nge	-497
ep	-498
▁recent	-499
▁off	-500
▁amount	-501
gency	-502
▁fe	-503
▁un	-504
▁us	-505
mergency	-506
▁track	-507
▁guest	-508
pic	-509
light	-510
"}},{"	-511
inten	-512
message	-513
ancel	-514
uman	-515
amount	-516
YY	-517
▁mo	-518
▁sc	-519
▁add	-520
ity	-521
ath	-522
▁we	-523
▁it	-524
atch	-525
▁active	-526
update	-527
bo	-528
▁code	-529
own	-530
▁ID	-531
St	-532
▁auto	-533
▁set	-534
include	-535
▁r	-536
note	-537
▁destination	-538
▁U	-539
▁check	-540
so	-541
▁play	-542
hone	-543
▁category	-544
urce	-545
ystem	-546
▁[]	-547
do	-548
hedu	-549
sho	-550
hist	-551
▁ret	-552
hedule	-553
fy	-554
val	-555
send	-556
▁such	-557
email	-558
ark	-559
ag	-560
ong	-561
ass	-562
pense	-563
faul	-564
Create	-565
tifications	-566
▁ar	-567
.,	-568
▁media	-569
▁M	-570
new	-571
▁if	-572
Search	-573
filter	-574
ould	-575
▁bil	-576
ning	-577
ather	-578
ading	-579
ater	-580
intenance	-581
Start	-582
urns	-583
stop	-584
▁pri	-585
▁goal	-586
▁timer	-587
lant	-588
cted	-589
▁sh	-590
leep	-591
back	-592
ume	-593
▁optional	-594
▁{"	-595
ype	-596
query	-597
history	-598
cial	-599
wit	-600
timer	-601
right	-602
▁sm	-603
ust	-604
cast	-605
▁share	-606
com	-607
ild	-608
pri	-609
add	-610
ded	-611
▁title	-612
medi	-613
ap	-614
che	-615
▁audio	-616
lash	-617
ngu	-618
▁activity	-619
nguage	-620
cipient	-621
▁ch	-622
▁you	-623
▁temperature	-624
▁pet	-625
po	-626
▁currently	-627
▁z	-628
▁smart	-629
ds	-630
▁H	-631
photo	-632
▁T	-633
abel	-634
Send	-635
ride	-636
▁im	-637
ords	-638
▁sensor	-639
▁th	-640
▁base	-641
▁ti	-642
bum	-643
tal	-644
ym	-645
▁2	-646
▁si	-647
▁vehicle	-648
ven	-649
▁query	-650
assword	-651
udget	-652
ll	-653
his	-654
▁include	-655
atform	-656
▁address	-657
▁based	-658
▁j	-659
▁up	-660
▁res	-661
open	-662
ayment	-663
▁search	-664
eting	-665
▁content	-666
▁par	-667
liance	-668
og	-669
fault	-670
▁A	-671
▁usage	-672
card	-673
▁display	-674
level	-675
destination	-676
udy	-677
atter	-678
▁co	-679
ist	-680
older	-681
▁day	-682
uti	-683
ain	-684
ffic	-685
goal	-686
ask	-687
Number	-688
ncy	-689
gation	-690
▁P	-691
▁pre	-692
est	-693
aving	-694
conds	-695
row	-696
share	-697
ale	-698
deo	-699
gger	-700
work	-701
▁recipient	-702
ooking	-703
amera	-704
rigger	-705
▁mile	-706
riod	-707
▁turn	-708
ual	-709
▁reading	-710
eding	-711
Open	-712
Returns	-713
int	-714
▁UR	-715
lease	-716
subject	-717
▁daily	-718
▁save	-719
▁maintenance	-720
▁update	-721
Add	-722
attery	-723
indow	-724
▁trans	-725
request	-726
ff	-727
event	-728
oll	-729
spe	-730
item	-731
lashcard	-732
pet	-733
tic	-734
ren	-735
witch	-736
iz	-737
ex	-738
▁system	-739
▁ha	-740
.",	-741
erate	-742
utine	-743
uri	-744
onth	-745
stant	-746
▁po	-747
by	-748
activity	-749
human	-750
▁whe	-751
book	-752
res	-753
ous	-754
▁data	-755
reminder	-756
duct	-757
dis	-758
archive	-759
Con	-760
post	-761
▁arti	-762
category	-763
put	-764
▁end	-765
Te	-766
▁read	-767
imum	-768
ngth	-769
▁food	-770
▁URL	-771
mile	-772
▁type	-773
ink	-774
▁com	-775
shot	-776
audio	-777
med	-778
▁notifications	-779
▁cy	-780
top	-781
lue	-782
default	-783
track	-784
▁social	-785
mediate	-786
▁emergency	-787
▁sho	-788
delete	-789
▁items	-790
gn	-791
▁na	-792
be	-793
▁comple	-794
summary	-795
▁water	-796
itation	-797
▁W	-798
code	-799
▁conne	-800
ome	-801
▁page	-802
▁dete	-803
ric	-804
afe	-805
trol	-806
urs	-807
target	-808
▁total	-809
ails	-810
board	-811
ches	-812
ran	-813
ody	-814
▁plant	-815
up	-816
▁percent	-817
▁post	-818
user	-819
▁5	-820
avings	-821
▁open	-822
▁billing	-823
vehicle	-824
▁can	-825
lose	-826
vert	-827
nter	-828
▁send	-829
ill	-830
▁limit	-831
reak	-832
▁alarm	-833
▁summary	-834
tails	-835
▁ra	-836
▁album	-837
▁stop	-838
▁delete	-839
▁3	-840
generate	-841
▁inter	-842
▁please	-843
ness	-844
▁percentage	-845
▁te	-846
rate	-847
▁schedule	-848
▁do	-849
afety	-850
▁should	-851
pli	-852
plan	-853
▁provi	-854
ull	-855
▁task	-856
ollow	-857
oth	-858
▁aler	-859
▁topic	-860
ram	-861
estion	-862
Rec	-863
▁like	-864
ry	-865
▁meeting	-866
ffe	-867
alth	-868
ication	-869
dition	-870
na	-871
▁cha	-872
▁next	-873
▁path	-874
coming	-875
fir	-876
air	-877
▁R	-878
stance	-879
▁call	-880
rection	-881
.0	-882
usic	-883
rid	-884
▁account	-885
▁G	-886
▁weather	-887
mber	-888
ps	-889
fore	-890
▁du	-891
▁subject	-892
str	-893
curre	-894
▁val	-895
▁this	-896
tooth	-897
luetooth	-898
are	-899
gress	-900
▁return	-901
▁cancel	-902
ause	-903
▁cycle	-904
Text	-905
▁start	-906
ximum	-907
mated	-908
pre	-909
▁language	-910
ily	-911
ency	-912
Records	-913
ight	-914
▁recor	-915
ude	-916
fr	-917
cancel	-918
ati	-919
emergency	-920
▁match	-921
playlist	-922
limit	-923
amily	-924
▁B	-925
niti	-926
ror	-927
▁count	-928
▁ab	-929
ctor	-930
vigation	-931
down	-932
lip	-933
mediately	-934
▁home	-935
▁0	-936
rip	-937
ordin	-938
nue	-939
rase	-940
▁sleep	-941
nding	-942
▁out	-943
▁plan	-944
active	-945
Initi	-946
unit	-947
▁met	-948
▁setting	-949
rightness	-950
room	-951
▁bet	-952
olume	-953
▁10	-954
ek	-955
ori	-956
▁identify	-957
hrase	-958
▁playlist	-959
alend	-960
irror	-961
phone	-962
▁study	-963
▁tracking	-964
rec	-965
Target	-966
▁connected	-967
stone	-968
line	-969
trans	-970
hite	-971
":1	-972
aper	-973
alendar	-974
nal	-975
ving	-976
▁air	-977
▁payment	-978
ner	-979
▁D	-980
Turn	-981
sius	-982
▁inclu	-983
▁coordin	-984
speed	-985
▁des	-986
▁budget	-987
▁including	-988
Description	-989
ween	-990
Delete	-991
rone	-992
comp	-993
mitted	-994
url	-995
▁light	-996
▁between	-997
▁down	-998
▁that	-999
label	-1000
▁venue	-1001
wi	-1002
ey	-1003
Play	-1004
arran	-1005
▁change	-1006
Share	-1007
▁image	-1008
isting	-1009
ron	-1010
▁human	-1011
▁flashcard	-1012
▁existing	-1013
ip	-1014
▁value	-1015
▁readable	-1016
atering	-1017
food	-1018
site	-1019
page	-1020
▁action	-1021
▁col	-1022
cha	-1023
amp	-1024
take	-1025
data	-1026
▁speed	-1027
▁request	-1028
▁true	-1029
▁completed	-1030
▁reg	-1031
ocab	-1032
▁F	-1033
guest	-1034
content	-1035
vo	-1036
▁video	-1037
▁feeding	-1038
ook	-1039
requency	-1040
▁transaction	-1041
ocabul	-1042
mation	-1043
ocabulary	-1044
▁folder	-1045
source	-1046
mark	-1047
▁mi	-1048
▁hi	-1049
20	-1050
▁child	-1051
and	-1052
▁project	-1053
sensor	-1054
▁п	-1055
daily	-1056
▁parti	-1057
▁days	-1058
MM	-1059
ravel	-1060
▁about	-1061
change	-1062
tation	-1063
size	-1064
Fi	-1065
stri	-1066
▁trail	-1067
cipant	-1068
weather	-1069
▁was	-1070
▁phone	-1071
▁word	-1072
▁last	-1073
ick	-1074
▁loc	-1075
▁route	-1076
▁camera	-1077
sleep	-1078
arranty	-1079
▁omitted	-1080
▁routine	-1081
lear	-1082
ush	-1083
matic	-1084
ach	-1085
door	-1086
▁appliance	-1087
▁period	-1088
ocus	-1089
zone	-1090
▁order	-1091
lin	-1092
Ad	-1093
ical	-1094
password	-1095
▁run	-1096
days	-1097
plit	-1098
block	-1099
▁platform	-1100
▁car	-1101
▁flight	-1102
currency	-1103
child	-1104
▁line	-1105
hich	-1106
schedule	-1107
main	-1108
image	-1109
▁TV	-1110
sta	-1111
alc	-1112
▁battery	-1113
way	-1114
▁cooking	-1115
yle	-1116
▁history	-1117
call	-1118
▁log	-1119
platform	-1120
pending	-1121
face	-1122
ridge	-1123
sson	-1124
tt	-1125
wifi	-1126
rect	-1127
alcul	-1128
▁upcoming	-1129
-1	-1130
control	-1131
▁mon	-1132
▁assi	-1133
auto	-1134
▁details	-1135
off	-1136
find	-1137
Creates	-1138
▁L	-1139
To	-1140
newal	-1141
▁participant	-1142
ste	-1143
acity	-1144
tered	-1145
ock	-1146
▁most	-1147
▁fin	-1148
▁stre	-1149
▁E	-1150
▁poll	-1151
load	-1152
month	-1153
▁window	-1154
very	-1155
▁use	-1156
met	-1157
tom	-1158
sity	-1159
▁their	-1160
▁с	-1161
ower	-1162
▁show	-1163
▁deck	-1164
Fet	-1165
▁need	-1166
▁retrieve	-1167
ble	-1168
▁Wi	-1169
Adds	-1170
Update	-1171
trail	-1172
gre	-1173
Initiates	-1174
▁unit	-1175
▁seconds	-1176
▁fore	-1177
YYYY	-1178
seconds	-1179
Updates	-1180
▁remain	-1181
appliance	-1182
▁appl	-1183
:00	-1184
moke	-1185
ries	-1186
▁int	-1187
45	-1188
▁feed	-1189
▁inform	-1190
▁work	-1191
etwork	-1192
just	-1193
ft	-1194
lation	-1195
DD	-1196
▁source	-1197
notes	-1198
front	-1199
▁saved	-1200
▁YYYY	-1201
aler	-1202
▁maximum	-1203
▁information	-1204
Sets	-1205
▁N	-1206
▁н	-1207
▁article	-1208
Travel	-1209
▁automatic	-1210
Log	-1211
▁J	-1212
por	-1213
fin	-1214
▁long	-1215
language	-1216
grees	-1217
Take	-1218
▁local	-1219
Fetches	-1220
▁description	-1221
').","	-1222
screenshot	-1223
▁degrees	-1224
move	-1225
mileage	-1226
▁password	-1227
▁uh	-1228
▁when	-1229
tification	-1230
dete	-1231
urring	-1232
tra	-1233
▁before	-1234
ressure	-1235
▁gen	-1236
▁over	-1237
▁ride	-1238
▁using	-1239
VP	-1240
follow	-1241
nsi	-1242
system	-1243
dri	-1244
▁forecast	-1245
notifications	-1246
ality	-1247
▁back	-1248
▁safety	-1249
hod	-1250
▁room	-1251
cling	-1252
save	-1253
display	-1254
▁rate	-1255
gear	-1256
body	-1257
watch	-1258
path	-1259
▁man	-1260
▁song	-1261
plant	-1262
late	-1263
▁are	-1264
▁question	-1265
next	-1266
▁guests	-1267
▁health	-1268
sition	-1269
bol	-1270
▁ob	-1271
So	-1272
▁into	-1273
▁savings	-1274
username	-1275
match	-1276
Trigger	-1277
ward	-1278
▁messages	-1279
nect	-1280
▁interval	-1281
urifier	-1282
Stop	-1283
folder	-1284
ymbol	-1285
pon	-1286
isture	-1287
ene	-1288
from	-1289
▁tra	-1290
▁wh	-1291
01	-1292
led	-1293
titude	-1294
media	-1295
payment	-1296
▁phrase	-1297
rams	-1298
▁give	-1299
▁member	-1300
▁vo	-1301
▁focus	-1302
▁white	-1303
ew	-1304
▁application	-1305
apacity	-1306
▁kil	-1307
formed	-1308
▁diaper	-1309
arge	-1310
window	-1311
deck	-1312
aker	-1313
order	-1314
AC	-1315
▁condition	-1316
▁settings	-1317
den	-1318
▁performed	-1319
▁fil	-1320
fficul	-1321
▁spending	-1322
ntry	-1323
period	-1324
noo	-1325
VAC	-1326
▁door	-1327
▁mil	-1328
topic	-1329
▁GP	-1330
▁during	-1331
nooze	-1332
▁which	-1333
vate	-1334
direction	-1335
▁lo	-1336
alarm	-1337
ize	-1338
▁dispense	-1339
ger	-1340
dit	-1341
▁string	-1342
▁brow	-1343
▁HVAC	-1344
▁recording	-1345
dent	-1346
▁GPS	-1347
▁kilome	-1348
vious	-1349
assi	-1350
pace	-1351
▁zone	-1352
camera	-1353
ailable	-1354
▁remaining	-1355
▁coordinates	-1356
▁music	-1357
▁today	-1358
staur	-1359
fficulty	-1360
▁mileage	-1361
▁en	-1362
read	-1363
▁frequency	-1364
ssue	-1365
▁в	-1366
Email	-1367
Gen	-1368
staurant	-1369
▁K	-1370
water	-1371
▁gar	-1372
▁real	-1373
ture	-1374
▁respon	-1375
battery	-1376
ia	-1377
ptions	-1378
inner	-1379
run	-1380
▁place	-1381
99	-1382
▁recurring	-1383
▁renewal	-1384
cess	-1385
▁given	-1386
vp	-1387
apply	-1388
figu	-1389
▁calendar	-1390
ses	-1391
▁fan	-1392
▁alert	-1393
cident	-1394
.5	-1395
week	-1396
ta	-1397
study	-1398
▁month	-1399
video	-1400
stamp	-1401
bed	-1402
nder	-1403
▁watering	-1404
▁participants	-1405
bre	-1406
▁product	-1407
▁av	-1408
▁dri	-1409
pm	-1410
▁length	-1411
son	-1412
arby	-1413
place	-1414
ating	-1415
alance	-1416
▁notification	-1417
flight	-1418
hours	-1419
project	-1420
▁genre	-1421
▁clip	-1422
product	-1423
▁expense	-1424
clear	-1425
vac	-1426
▁night	-1427
Type	-1428
▁its	-1429
end	-1430
▁cre	-1431
yz	-1432
curi	-1433
▁ir	-1434
▁esti	-1435
budget	-1436
▁д	-1437
▁з	-1438
bluetooth	-1439
та	-1440
mirror	-1441
ok	-1442
feeding	-1443
▁resul	-1444
▁um	-1445
▁artist	-1446
fo	-1447
curity	-1448
55	-1449
figures	-1450
striction	-1451
items	-1452
elsius	-1453
close	-1454
▁progress	-1455
▁med	-1456
▁distance	-1457
ital	-1458
▁м	-1459
▁100	-1460
Configures	-1461
sk	-1462
ulti	-1463
ats	-1464
'.	-1465
▁ref	-1466
23	-1467
▁tran	-1468
justs	-1469
lood	-1470
▁Celsius	-1471
▁get	-1472
meter	-1473
bile	-1474
▁cons	-1475
▁estimated	-1476
lines	-1477
▁key	-1478
▁milestone	-1479
fridge	-1480
ai	-1481
dometer	-1482
▁exp	-1483
▁ad	-1484
tivity	-1485
savings	-1486
Adjusts	-1487
▁desired	-1488
orrow	-1489
ces	-1490
km	-1491
▁odometer	-1492
arding	-1493
▁timestamp	-1494
ion	-1495
▁De	-1496
olic	-1497
▁network	-1498
car	-1499
parated	-1500
▁now	-1501
▁por	-1502
▁alerts	-1503
▁conditions	-1504
ja	-1505
Ex	-1506
ru	-1507
▁oven	-1508
album	-1509
format	-1510
▁vis	-1511
▁vocabulary	-1512
today	-1513
separated	-1514
turn	-1515
distance	-1516
routine	-1517
temp	-1518
co	-1519
erci	-1520
▁entry	-1521
account	-1522
▁screenshot	-1523
rigation	-1524
oom	-1525
▁have	-1526
▁could	-1527
▁fee	-1528
livery	-1529
oven	-1530
ose	-1531
scribe	-1532
▁inv	-1533
▁ano	-1534
tain	-1535
last	-1536
bi	-1537
▁body	-1538
▁je	-1539
firmation	-1540
▁navigation	-1541
▁moisture	-1542
Save	-1543
▁available	-1544
itor	-1545
30	-1546
ка	-1547
feed	-1548
raw	-1549
maintenance	-1550
▁citation	-1551
side	-1552
this	-1553
▁currency	-1554
▁another	-1555
▁soil	-1556
▁updates	-1557
▁(0	-1558
▁ste	-1559
navigation	-1560
switch	-1561
arti	-1562
ventory	-1563
то	-1564
max	-1565
▁immediately	-1566
idget	-1567
mi	-1568
▁sha	-1569
▁bre	-1570
cur	-1571
mote	-1572
record	-1573
imize	-1574
rs	-1575
},	-1576
und	-1577
ies	-1578
inter	-1579
Source	-1580
▁contacts	-1581
▁services	-1582
Toggle	-1583
progress	-1584
arning	-1585
▁archive	-1586
▁volume	-1587
▁photos	-1588
sub	-1589
ties	-1590
▁traffic	-1591
▁where	-1592
▁perform	-1593
ра	-1594
SO	-1595
flashcard	-1596
▁tier	-1597
▁hour	-1598
drone	-1599
medium	-1600
let	-1601
vas	-1602
▁subscriptions	-1603
▁smoke	-1604
▁optionally	-1605
▁cancellation	-1606
session	-1607
▁card	-1608
▁family	-1609
ob	-1610
▁bu	-1611
▁detector	-1612
▁lesson	-1613
▁kilometers	-1614
▁pressure	-1615
sm	-1616
rash	-1617
ech	-1618
▁ter	-1619
▁dig	-1620
instant	-1621
ntil	-1622
▁assign	-1623
ence	-1624
SVP	-1625
tate	-1626
adlines	-1627
▁scheduled	-1628
vation	-1629
printer	-1630
▁table	-1631
Switch	-1632
▁RSVP	-1633
▁τ	-1634
urst	-1635
▁browser	-1636
▁news	-1637
anti	-1638
▁apply	-1639
wer	-1640
88	-1641
article	-1642
resh	-1643
reg	-1644
▁downtime	-1645
zz	-1646
▁output	-1647
▁leak	-1648
men	-1649
rsvp	-1650
▁digital	-1651
Checks	-1652
ph	-1653
▁WiFi	-1654
ercise	-1655
▁hours	-1656
▁Bluetooth	-1657
▁comment	-1658
citation	-1659
chen	-1660
▁effe	-1661
▁instant	-1662
▁bill	-1663
ade	-1664
22	-1665
▁one	-1666
aby	-1667
cycling	-1668
ocu	-1669
dex	-1670
tv	-1671
▁drone	-1672
▁на	-1673
recent	-1674
adata	-1675
▁keyword	-1676
stic	-1677
inventory	-1678
orning	-1679
eb	-1680
▁username	-1681
▁6	-1682
venue	-1683
ason	-1684
":5	-1685
meeting	-1686
high	-1687
lies	-1688
▁printer	-1689
▁ble	-1690
▁running	-1691
▁multi	-1692
sed	-1693
ution	-1694
music	-1695
"},	-1696
ator	-1697
safety	-1698
Ma	-1699
▁color	-1700
How	-1701
▁issue	-1702
question	-1703
▁direction	-1704
nges	-1705
▁trigger	-1706
▁remote	-1707
▁obser	-1708
▁workout	-1709
scene	-1710
US	-1711
▁=	-1712
Pro	-1713
tomorrow	-1714
▁feeder	-1715
▁detection	-1716
value	-1717
test	-1718
▁pr	-1719
fer	-1720
▁af	-1721
warranty	-1722
▁trip	-1723
workout	-1724
pping	-1725
▁oil	-1726
▁flashcards	-1727
▁sub	-1728
itations	-1729
App	-1730
▁quiz	-1731
health	-1732
▁style	-1733
milestone	-1734
▁warranty	-1735
▁inten	-1736
▁been	-1737
ml	-1738
▁pause	-1739
Comp	-1740
▁requ	-1741
▁size	-1742
brightness	-1743
layer	-1744
nsitivity	-1745
rt	-1746
alking	-1747
Triggers	-1748
Subject	-1749
▁site	-1750
cel	-1751
▁full	-1752
▁notes	-1753
▁bo	-1754
col	-1755
▁files	-1756
▁web	-1757
Ti	-1758
erates	-1759
▁disables	-1760
▁effect	-1761
Anal	-1762
itchen	-1763
ditional	-1764
▁1.0	-1765
▁tak	-1766
power	-1767
▁split	-1768
alerts	-1769
If	-1770
sten	-1771
ен	-1772
yzes	-1773
Analyzes	-1774
gro	-1775
clip	-1776
Cha	-1777
▁за	-1778
aj	-1779
faults	-1780
▁Q	-1781
nk	-1782
placement	-1783
plic	-1784
Generates	-1785
▁provided	-1786
Enables	-1787
ire	-1788
reading	-1789
▁recorded	-1790
etch	-1791
pot	-1792
..	-1793
▁8	-1794
odcast	-1795
▁close	-1796
chant	-1797
ago	-1798
ari	-1799
▁AP	-1800
picture	-1801
aller	-1802
▁mobile	-1803
▁irrigation	-1804
▁right	-1805
Label	-1806
▁method	-1807
unci	-1808
letter	-1809
▁just	-1810
loud	-1811
convert	-1812
celsius	-1813
ally	-1814
▁defin	-1815
ko	-1816
UR	-1817
ronunci	-1818
checklist	-1819
▁city	-1820
Li	-1821
vid	-1822
▁O	-1823
Logs	-1824
▁required	-1825
allery	-1826
quiz	-1827
gin	-1828
eta	-1829
gni	-1830
▁ele	-1831
tab	-1832
▁tracker	-1833
ronunciation	-1834
mari	-1835
ро	-1836
▁oper	-1837
▁Defaults	-1838
rics	-1839
ele	-1840
rol	-1841
mic	-1842
sing	-1843
▁via	-1844
member	-1845
For	-1846
vie	-1847
umed	-1848
:00'.","	-1849
witter	-1850
left	-1851
)","	-1852
▁recom	-1853
▁has	-1854
▁consumed	-1855
resho	-1856
reshold	-1857
▁watch	-1858
style	-1859
▁draw	-1860
▁provider	-1861
news	-1862
details	-1863
stre	-1864
▁push	-1865
verage	-1866
▁rotation	-1867
0}}]	-1868
▁what	-1869
report	-1870
Web	-1871
▁transactions	-1872
▁print	-1873
ken	-1874
acy	-1875
ummari	-1876
▁automated	-1877
lim	-1878
▁arri	-1879
▁stream	-1880
▁visual	-1881
lity	-1882
photos	-1883
▁sharing	-1884
lls	-1885
trigger	-1886
rial	-1887
▁bed	-1888
portion	-1889
24	-1890
walking	-1891
tive	-1892
▁automation	-1893
▁15	-1894
▁after	-1895
▁20	-1896
night	-1897
conne	-1898
ти	-1899
traffic	-1900
ntal	-1901
how	-1902
inds	-1903
avo	-1904
mended	-1905
▁intensity	-1906
onym	-1907
ffee	-1908
ader	-1909
redient	-1910
▁tire	-1911
restriction	-1912
ache	-1913
▁within	-1914
▁pace	-1915
ports	-1916
fan	-1917
zard	-1918
▁operation	-1919
uff	-1920
▁break	-1921
antity	-1922
ative	-1923
rush	-1924
▁Hey	-1925
▁strength	-1926
▁heart	-1927
sonal	-1928
inst	-1929
▁milli	-1930
▁Spe	-1931
onymous	-1932
ki	-1933
▁label	-1934
symbol	-1935
iti	-1936
▁price	-1937
77	-1938
▁purifier	-1939
▁tasks	-1940
cooking	-1941
▁block	-1942
due	-1943
▁input	-1944
ned	-1945
▁drawing	-1946
oram	-1947
ka	-1948
ademic	-1949
sso	-1950
▁по	-1951
heit	-1952
pause	-1953
vocabulary	-1954
▁venues	-1955
messages	-1956
voice	-1957
hren	-1958
monthly	-1959
ummarize	-1960
pt	-1961
▁ans	-1962
family	-1963
senti	-1964
hrenheit	-1965
MS	-1966
▁Speaker	-1967
▁academic	-1968
▁whiteboard	-1969
intensity	-1970
stru	-1971
gnifier	-1972
calendar	-1973
":2	-1974
nel	-1975
▁playback	-1976
▁state	-1977
▁stock	-1978
▁star	-1979
▁brightness	-1980
▁words	-1981
bil	-1982
▁switch	-1983
▁desk	-1984
▁30	-1985
▁convert	-1986
etary	-1987
▁100.","	-1988
diaper	-1989
▁garden	-1990
Dis	-1991
istered	-1992
▁recommended	-1993
peat	-1994
ool	-1995
▁capacity	-1996
alculates	-1997
chi	-1998
adline	-1999
▁bi	-2000
gain	-2001
tspot	-2002
tainment	-2003
▁move	-2004
bill	-2005
bro	-2006
task	-2007
allow	-2008
dispense	-2009
bedtime	-2010
mal	-2011
tran	-2012
▁tab	-2013
▁Mon	-2014
▁que	-2015
▁SMS	-2016
ternal	-2017
Ac	-2018
poll	-2019
rating	-2020
pin	-2021
Ar	-2022
lection	-2023
ssoci	-2024
unset	-2025
▁nearby	-2026
snooze	-2027
riger	-2028
▁associ	-2029
▁events	-2030
ent	-2031
pia	-2032
List	-2033
Que	-2034
▁point	-2035
onent	-2036
rigerator	-2037
▁score	-2038
▁filtered	-2039
Full	-2040
▁regarding	-2041
uffle	-2042
ре	-2043
restart	-2044
anoram	-2045
▁quality	-2046
▁late	-2047
usage	-2048
▁streak	-2049
▁dark	-2050
annel	-2051
▁clean	-2052
▁baby	-2053
Queries	-2054
ttle	-2055
nds	-2056
0,"	-2057
restaurant	-2058
nce	-2059
▁delivery	-2060
▁associated	-2061
rending	-2062
ot	-2063
▁ci	-2064
iration	-2065
ply	-2066
▁registered	-2067
font	-2068
▁answer	-2069
▁direct	-2070
New	-2071
▁mark	-2072
▁high	-2073
large	-2074
tili	-2075
alculate	-2076
▁grams	-2077
▁ISO	-2078
▁used	-2079
▁power	-2080
twitter	-2081
oil	-2082
▁coordinate	-2083
▁pi	-2084
▁short	-2085
Calculates	-2086
ording	-2087
▁detected	-2088
▁monitor	-2089
▁results	-2090
▁clear	-2091
os	-2092
venues	-2093
▁until	-2094
▁V	-2095
▁balance	-2096
expense	-2097
▁desktop	-2098
▁cost	-2099
Convert	-2100
▁cop	-2101
identi	-2102
AP	-2103
ara	-2104
▁formatted	-2105
amb	-2106
streak	-2107
rotation	-2108
rtual	-2109
recording	-2110
▁voice	-2111
▁difficulty	-2112
facebook	-2113
lesson	-2114
liters	-2115
options	-2116
heart	-2117
fahrenheit	-2118
now	-2119
mp	-2120
valu	-2121
zer	-2122
ocument	-2123
LA	-2124
ads	-2125
▁anal	-2126
sepia	-2127
▁comma	-2128
▁completion	-2129
▁tag	-2130
Starts	-2131
feedback	-2132
▁provide	-2133
rty	-2134
▁minute	-2135
quence	-2136
grams	-2137
phrase	-2138
setting	-2139
▁drill	-2140
zzle	-2141
▁refrigerator	-2142
ell	-2143
In	-2144
USD	-2145
quest	-2146
home	-2147
▁records	-2148
Request	-2149
▁previous	-2150
ко	-2151
avoid	-2152
_1	-2153
our	-2154
Im	-2155
ware	-2156
ition	-2157
detection	-2158
mon	-2159
full	-2160
▁replacement	-2161
previous	-2162
pronunciation	-2163
sible	-2164
services	-2165
▁10).","	-2166
tolls	-2167
Clear	-2168
▁repre	-2169
▁char	-2170
unblock	-2171
chieve	-2172
▁achieve	-2173
ookmark	-2174
direct	-2175
veri	-2176
capacity	-2177
Maximum	-2178
▁countdown	-2179
color	-2180
▁emails	-2181
ito	-2182
▁find	-2183
ved	-2184
purifier	-2185
sign	-2186
hicago	-2187
directions	-2188
bot	-2189
plane	-2190
▁QR	-2191
44	-2192
rolling	-2193
white	-2194
▁lights	-2195
feren	-2196
athing	-2197
▁5.","	-2198
ни	-2199
▁then	-2200
Duration	-2201
ва	-2202
▁outdoor	-2203
▁levels	-2204
Additional	-2205
orage	-2206
tag	-2207
▁lock	-2208
vection	-2209
▁symbol	-2210
ymp	-2211
ide	-2212
▁expiration	-2213
uum	-2214
plicate	-2215
▁milliliters	-2216
▁mirror	-2217
▁station	-2218
ymptom	-2219
▁pending	-2220
▁sp	-2221
▁aloud	-2222
_99	-2223
▁finis	-2224
sets	-2225
EUR	-2226
olice	-2227
andard	-2228
▁link	-2229
▁canvas	-2230
tire	-2231
но	-2232
my	-2233
▁life	-2234
updates	-2235
▁burst	-2236
adcast	-2237
Changes	-2238
те	-2239
bility	-2240
▁require	-2241
itude	-2242
stics	-2243
table	-2244
▁allow	-2245
▁avo	-2246
▁font	-2247
tel	-2248
▁confirmation	-2249
▁modi	-2250
▁hard	-2251
▁sequence	-2252
metadata	-2253
cycle	-2254
Phone	-2255
security	-2256
Min	-2257
An	-2258
bor	-2259
▁quick	-2260
City	-2261
▁exercise	-2262
▁toward	-2263
gar	-2264
identify	-2265
region	-2266
▁ing	-2267
▁monetary	-2268
confir	-2269
blood	-2270
oz	-2271
net	-2272
xy	-2273
▁create	-2274
subscriptions	-2275
watering	-2276
dinner	-2277
onnect	-2278
Applies	-2279
unch	-2280
ceries	-2281
valuate	-2282
interval	-2283
▁avoid	-2284
route	-2285
Report	-2286
▁hiking	-2287
▁miles	-2288
actions	-2289
▁и	-2290
detector	-2291
export	-2292
input	-2293
ри	-2294
▁directions	-2295
▁starting	-2296
lage	-2297
urb	-2298
tify	-2299
▁unlock	-2300
senting	-2301
-100	-2302
any	-2303
▁component	-2304
moderate	-2305
igh	-2306
Track	-2307
Website	-2308
leak	-2309
strict	-2310
}}},	-2311
▁due	-2312
cies	-2313
▁representing	-2314
iness	-2315
itle	-2316
▁ingredient	-2317
▁meters	-2318
▁9	-2319
▁0.0	-2320
hvac	-2321
alert	-2322
paper	-2323
Title	-2324
▁deadline	-2325
▁calls	-2326
▁term	-2327
xygen	-2328
whiteboard	-2329
▁pages	-2330
yst	-2331
▁widget	-2332
▁fr	-2333
▁named	-2334
▁4	-2335
▁roads	-2336
▁toll	-2337
ove	-2338
▁restaurant	-2339
upcoming	-2340
linds	-2341
▁Show	-2342
ons	-2343
actice	-2344
sconnect	-2345
▁ke	-2346
police	-2347
:30	-2348
Sh	-2349
▁7	-2350
ound	-2351
▁warning	-2352
print	-2353
atistics	-2354
difficulty	-2355
▁tem	-2356
method	-2357
split	-2358
▁bro	-2359
comple	-2360
ait	-2361
Recipient	-2362
"}}},	-2363
▁gro	-2364
plier	-2365
rotate	-2366
most	-2367
▁2.0	-2368
▁creative	-2369
▁options	-2370
speech	-2371
sp	-2372
▁layer	-2373
▁feedback	-2374
▁za	-2375
steps	-2376
▁shop	-2377
allpaper	-2378
Au	-2379
▁ap	-2380
smoke	-2381
unlock	-2382
▁playing	-2383
▁rental	-2384
▁remotely	-2385
▁multiplier	-2386
driving	-2387
▁requirements	-2388
yard	-2389
ighbor	-2390
ging	-2391
ustom	-2392
als	-2393
▁о	-2394
transit	-2395
▁later	-2396
▁σ	-2397
▁species	-2398
Sc	-2399
▁(0.5	-2400
▁μ	-2401
▁ja	-2402
▁fir	-2403
▁practice	-2404
▁care	-2405
▁fav	-2406
▁incident	-2407
▁definition	-2408
▁cart	-2409
▁neighbor	-2410
els	-2411
immediately	-2412
▁take	-2413
ones	-2414
volume	-2415
▁gu	-2416
MI	-2417
ways	-2418
▁export	-2419
▁metrics	-2420
meal	-2421
usiness	-2422
▁face	-2423
ogra	-2424
▁charging	-2425
iled	-2426
▁biller	-2427
fill	-2428
ise	-2429
edit	-2430
agram	-2431
hood	-2432
▁security	-2433
▁cho	-2434
frequency	-2435
ik	-2436
▁invitation	-2437
forecast	-2438
▁operational	-2439
soil	-2440
▁checklist	-2441
▁neighborhood	-2442
DMI	-2443
spending	-2444
ually	-2445
▁design	-2446
▁too	-2447
:/	-2448
tracking	-2449
quantity	-2450
":3	-2451
://	-2452
Short	-2453
enter	-2454
calculate	-2455
'","	-2456
fine	-2457
mostat	-2458
metr	-2459
ли	-2460
thor	-2461
▁see	-2462
ormal	-2463
▁morning	-2464
▁info	-2465
balance	-2466
translate	-2467
▁pix	-2468
struction	-2469
compose	-2470
▁follow	-2471
Tem	-2472
tes	-2473
▁response	-2474
▁meal	-2475
▁acce	-2476
ystolic	-2477
price	-2478
astolic	-2479
cart	-2480
ref	-2481
▁Room	-2482
cook	-2483
▁Could	-2484
▁statistics	-2485
step	-2486
▁APA	-2487
▁milk	-2488
df	-2489
Immediately	-2490
на	-2491
▁modify	-2492
mental	-2493
Sub	-2494
▁cycling	-2495
▁blood	-2496
info	-2497
▁along	-2498
completed	-2499
backyard	-2500
▁Chicago	-2501
▁side	-2502
▁past	-2503
▁portion	-2504
▁ring	-2505
cc	-2506
ji	-2507
▁step	-2508
Control	-2509
rical	-2510
▁transcription	-2511
ids	-2512
▁da	-2513
▁MLA	-2514
ancial	-2515
cut	-2516
▁range	-2517
defin	-2518
merchant	-2519
view	-2520
▁'1	-2521
▁threshold	-2522
ear	-2523
▁il	-2524
▁report	-2525
▁any	-2526
▁slow	-2527
osition	-2528
Toggles	-2529
stock	-2530
files	-2531
Room	-2532
HDMI	-2533
ices	-2534
convection	-2535
va	-2536
▁first	-2537
fetch	-2538
uture	-2539
ju	-2540
gne	-2541
cipe	-2542
▁again	-2543
ου	-2544
nearby	-2545
ank	-2546
▁timezone	-2547
was	-2548
▁newsletter	-2549
transcription	-2550
▁more	-2551
▁financial	-2552
▁13	-2553
settings	-2554
eink	-2555
sensitivity	-2556
rent	-2557
▁position	-2558
ration	-2559
inv	-2560
Com	-2561
▁Can	-2562
arches	-2563
▁sk	-2564
▁index	-2565
coffee	-2566
▁returns	-2567
го	-2568
▁latest	-2569
▁being	-2570
lights	-2571
▁future	-2572
▁12	-2573
ority	-2574
▁automatically	-2575
Living	-2576
lashlight	-2577
Searches	-2578
prink	-2579
▁inside	-2580
▁author	-2581
▁area	-2582
prinkler	-2583
▁achieved	-2584
ground	-2585
▁mu	-2586
▁contents	-2587
stit	-2588
να	-2589
▁some	-2590
clipboard	-2591
▁hazard	-2592
dim	-2593
▁online	-2594
names	-2595
VPN	-2596
▁while	-2597
noir	-2598
js	-2599
Trans	-2600
velo	-2601
▁et	-2602
pected	-2603
▁diffe	-2604
▁VPN	-2605
warm	-2606
▁dinner	-2607
pdf	-2608
pressure	-2609
script	-2610
not	-2611
_88	-2612
quality	-2613
address	-2614
▁complete	-2615
▁timeline	-2616
▁assistant	-2617
▁oun	-2618
▁performance	-2619
gnee	-2620
des	-2621
▁My	-2622
vivid	-2623
Volume	-2624
fast	-2625
▁different	-2626
▁ver	-2627
▁ounces	-2628
compress	-2629
▁1.0.","	-2630
▁default	-2631
point	-2632
hour	-2633
tracker	-2634
over	-2635
50	-2636
download	-2637
ttps	-2638
▁Z	-2639
▁pron	-2640
▁matching	-2641
▁record	-2642
nap	-2643
▁devices	-2644
Work	-2645
chive	-2646
▁gear	-2647
rost	-2648
▁medication	-2649
▁model	-2650
invitations	-2651
▁pixels	-2652
Move	-2653
▁must	-2654
connect	-2655
garage	-2656
ree	-2657
▁б	-2658
▁well	-2659
▁fast	-2660
refresh	-2661
widget	-2662
assign	-2663
ла	-2664
bake	-2665
vations	-2666
clin	-2667
▁hotspot	-2668
uel	-2669
zi	-2670
minates	-2671
▁week	-2672
▁vac	-2673
ilent	-2674
▁blending	-2675
running	-2676
▁ge	-2677
Find	-2678
▁π	-2679
ounce	-2680
▁breast	-2681
▁CC	-2682
olog	-2683
alled	-2684
ference	-2685
Close	-2686
▁observations	-2687
▁hardware	-2688
▁dates	-2689
cure	-2690
▁buy	-2691
▁op	-2692
▁St	-2693
▁inst	-2694
▁designated	-2695
qr	-2696
▁test	-2697
clined	-2698
gy	-2699
External	-2700
network	-2701
▁Monday	-2702
Timer	-2703
ια	-2704
▁veri	-2705
anonymous	-2706
ured	-2707
Brightness	-2708
man	-2709
▁pur	-2710
▁tre	-2711
▁wear	-2712
▁Please	-2713
▁steps	-2714
washer	-2715
▁composition	-2716
▁assigned	-2717
▁pay	-2718
verity	-2719
ssid	-2720
stopwatch	-2721
irth	-2722
▁clipboard	-2723
▁pronounce	-2724
index	-2725
nde	-2726
cker	-2727
Curre	-2728
esti	-2729
▁inte	-2730
▁intervals	-2731
confirmation	-2732
broil	-2733
▁background	-2734
▁altitude	-2735
business	-2736
▁displayed	-2737
▁generate	-2738
ali	-2739
hes	-2740
▁translate	-2741
ku	-2742
Comma	-2743
plus	-2744
▁κ	-2745
▁collage	-2746
▁Shows	-2747
▁credenti	-2748
▁recipients	-2749
Archive	-2750
trip	-2751
oud	-2752
Translate	-2753
▁repeat	-2754
Mark	-2755
stream	-2756
gra	-2757
irthday	-2758
Compose	-2759
sort	-2760
▁collection	-2761
":15	-2762
▁reason	-2763
▁copy	-2764
▁shuffle	-2765
▁credentials	-2766
mu	-2767
Total	-2768
▁el	-2769
sha	-2770
Am	-2771
▁monthly	-2772
▁symptom	-2773
reset	-2774
▁enti	-2775
▁choices	-2776
▁stru	-2777
▁against	-2778
▁24	-2779
total	-2780
drill	-2781
...	-2782
ple	-2783
reason	-2784
▁fridge	-2785
▁sel	-2786
▁develo	-2787
olution	-2788
▁ebook	-2789
▁pack	-2790
Generate	-2791
-0	-2792
▁learning	-2793
▁expected	-2794
hed	-2795
▁not	-2796
▁keep	-2797
▁develop	-2798
▁custom	-2799
current	-2800
wind	-2801
gns	-2802
▁το	-2803
gallery	-2804
▁accur	-2805
▁shopping	-2806
▁toggle	-2807
ferred	-2808
▁process	-2809
▁wearable	-2810
▁nozzle	-2811
ncies	-2812
▁also	-2813
rite	-2814
Le	-2815
▁secure	-2816
Edit	-2817
tech	-2818
▁invitations	-2819
xl	-2820
▁currencies	-2821
▁Re	-2822
▁elevation	-2823
ava	-2824
▁transcript	-2825
▁ph	-2826
▁look	-2827
bottle	-2828
▁Check	-2829
▁attemp	-2830
go	-2831
blue	-2832
▁unarchive	-2833
phic	-2834
aloud	-2835
▁common	-2836
assistant	-2837
ghting	-2838
Filter	-2839
▁entire	-2840
pay	-2841
▁download	-2842
nerary	-2843
ich	-2844
▁blender	-2845
airy	-2846
▁initi	-2847
ample	-2848
shi	-2849
▁brush	-2850
▁rece	-2851
lp	-2852
▁refresh	-2853
brow	-2854
timezone	-2855
▁coverage	-2856
assignee	-2857
blender	-2858
▁accom	-2859
▁stopwatch	-2860
su	-2861
wet	-2862
modate	-2863
▁accommodate	-2864
ria	-2865
ither	-2866
ED	-2867
▁mer	-2868
▁wait	-2869
private	-2870
▁meas	-2871
▁company	-2872
▁ч	-2873
entertainment	-2874
pend	-2875
ле	-2876
▁heat	-2877
ories	-2878
bli	-2879
ownload	-2880
▁want	-2881
▁gallery	-2882
▁either	-2883
rie	-2884
rop	-2885
▁developmental	-2886
redit	-2887
":"20	-2888
▁accuracy	-2889
Product	-2890
▁under	-2891
intain	-2892
ga	-2893
Ter	-2894
▁compress	-2895
magnifier	-2896
defined	-2897
reader	-2898
ya	-2899
Which	-2900
headlines	-2901
loop	-2902
":"1	-2903
_3	-2904
▁rash	-2905
confirm	-2906
browsing	-2907
▁LED	-2908
personal	-2909
Cancel	-2910
":6	-2911
fici	-2912
▁sele	-2913
sunset	-2914
aces	-2915
▁analy	-2916
▁medical	-2917
Gym	-2918
▁cycles	-2919
▁ta	-2920
▁shut	-2921
▁stats	-2922
tailed	-2923
can	-2924
ει	-2925
▁paused	-2926
br	-2927
cost	-2928
zip	-2929
like	-2930
standard	-2931
▁scene	-2932
ographic	-2933
▁duplicate	-2934
gent	-2935
2","	-2936
_77	-2937
▁longitude	-2938
▁arrive	-2939
▁sign	-2940
dark	-2941
anorama	-2942
Terminates	-2943
▁sensitivity	-2944
comment	-2945
▁planned	-2946
rib	-2947
York	-2948
downtime	-2949
Time	-2950
ки	-2951
_55	-2952
▁clim	-2953
▁document	-2954
07	-2955
Spe	-2956
medication	-2957
▁latitude	-2958
small	-2959
▁store	-2960
▁listen	-2961
▁nu	-2962
channel	-2963
Home	-2964
transactions	-2965
layout	-2966
▁movie	-2967
Download	-2968
Family	-2969
▁warnings	-2970
away	-2971
renewal	-2972
▁restriction	-2973
utri	-2974
▁да	-2975
▁park	-2976
▁resulting	-2977
▁broadcast	-2978
dairy	-2979
▁das	-2980
▁who	-2981
▁minimum	-2982
▁go	-2983
▁mir	-2984
Snooze	-2985
▁50	-2986
Compress	-2987
▁hist	-2988
idth	-2989
▁45	-2990
▁make	-2991
breast	-2992
ouse	-2993
tics	-2994
tz	-2995
instagram	-2996
ince	-2997
▁measure	-2998
issue	-2999
delivery	-3000
orite	-3001
▁dish	-3002
▁cor	-3003
hen	-3004
▁bedtime	-3005
Loc	-3006
dirty	-3007
▁rende	-3008
movie	-3009
ized	-3010
install	-3011
unk	-3012
kay	-3013
rica	-3014
onome	-3015
▁internal	-3016
Acti	-3017
▁private	-3018
▁phys	-3019
gas	-3020
▁frost	-3021
▁struct	-3022
APL	-3023
▁sa	-3024
▁airport	-3025
ilt	-3026
▁suc	-3027
social	-3028
part	-3029
atima	-3030
▁reader	-3031
▁bookmark	-3032
▁detailed	-3033
ond	-3034
anno	-3035
Tempor	-3036
priority	-3037
▁adjust	-3038
TA	-3039
▁primary	-3040
":4	-3041
asy	-3042
▁š	-3043
"}}}]	-3044
morning	-3045
▁cite	-3046
armacy	-3047
png	-3048
When	-3049
intake	-3050
focus	-3051
sion	-3052
▁finished	-3053
▁them	-3054
▁front	-3055
dic	-3056
trending	-3057
tels	-3058
▁attempting	-3059
▁physical	-3060
ulse	-3061
ological	-3062
make	-3063
Amount	-3064
AAPL	-3065
▁party	-3066
▁fun	-3067
▁personal	-3068
▁profile	-3069
▁я	-3070
Follow	-3071
cookies	-3072
▁Pro	-3073
nolog	-3074
▁nutri	-3075
▁done	-3076
arily	-3077
Remove	-3078
za	-3079
topics	-3080
▁each	-3081
show	-3082
desk	-3083
▁tech	-3084
601	-3085
panorama	-3086
▁60	-3087
of	-3088
burst	-3089
avy	-3090
BP	-3091
contacts	-3092
Lock	-3093
▁Clear	-3094
000	-3095
▁favorite	-3096
Temporarily	-3097
unfollow	-3098
position	-3099
immediate	-3100
▁If	-3101
":8	-3102
exp	-3103
▁structured	-3104
return	-3105
▁normal	-3106
▁sport	-3107
merica	-3108
▁cont	-3109
▁а	-3110
biller	-3111
notify	-3112
shared	-3113
ule	-3114
▁confir	-3115
ollar	-3116
inc	-3117
bing	-3118
▁wallpaper	-3119
ript	-3120
summarize	-3121
submit	-3122
▁The	-3123
America	-3124
▁dat	-3125
▁stu	-3126
▁may	-3127
▁accessi	-3128
▁region	-3129
▁magnifier	-3130
▁es	-3131
Connect	-3132
▁α	-3133
_44	-3134
cache	-3135
▁8601	-3136
pages	-3137
▁forward	-3138
strength	-3139
length	-3140
exercise	-3141
ст	-3142
▁merchant	-3143
Sends	-3144
cene	-3145
ateo	-3146
▁Java	-3147
crash	-3148
▁på	-3149
desktop	-3150
Scene	-3151
incident	-3152
Activate	-3153
Script	-3154
▁γ	-3155
metry	-3156
▁self	-3157
▁headlines	-3158
▁JavaScript	-3159
bookmark	-3160
är	-3161
web	-3162
lemetry	-3163
▁preferred	-3164
▁ticker	-3165
ah	-3166
virtual	-3167
rim	-3168
checking	-3169
▁control	-3170
aves	-3171
▁sur	-3172
sen	-3173
canvas	-3174
▁how	-3175
annotate	-3176
break	-3177
Assi	-3178
▁there	-3179
00,"	-3180
▁remove	-3181
weekly	-3182
▁er	-3183
▁begin	-3184
credit	-3185
":45	-3186
nology	-3187
▁maintain	-3188
shopping	-3189
▁pic	-3190
▁die	-3191
tical	-3192
▁10.","	-3193
▁arrival	-3194
▁access	-3195
rehe	-3196
shut	-3197
▁option	-3198
▁articles	-3199
Pri	-3200
ím	-3201
Assigns	-3202
sturb	-3203
OO	-3204
▁ETA	-3205
output	-3206
saved	-3207
▁chron	-3208
tu	-3209
▁gain	-3210
oor	-3211
altitude	-3212
link	-3213
shutdown	-3214
bu	-3215
sources	-3216
nu	-3217
breathing	-3218
ля	-3219
▁chronological	-3220
▁built	-3221
▁verify	-3222
▁virtual	-3223
lap	-3224
▁API	-3225
ripher	-3226
OOG	-3227
Post	-3228
fall	-3229
head	-3230
▁checks	-3231
▁Wh	-3232
▁equ	-3233
▁trending	-3234
devices	-3235
▁għ	-3236
▁function	-3237
▁oc	-3238
_00	-3239
Social	-3240
ickup	-3241
OOGL	-3242
▁supp	-3243
▁help	-3244
End	-3245
termin	-3246
andom	-3247
▁tell	-3248
не	-3249
airplane	-3250
urgent	-3251
process	-3252
tilizer	-3253
▁crash	-3254
ctric	-3255
kill	-3256
▁installed	-3257
ei	-3258
sports	-3259
range	-3260
litics	-3261
silent	-3262
▁bibli	-3263
articles	-3264
moisture	-3265
ви	-3266
▁pair	-3267
uki	-3268
sos	-3269
▁really	-3270
pass	-3271
stitution	-3272
orical	-3273
Ch	-3274
▁unblock	-3275
▁actions	-3276
ку	-3277
term	-3278
rou	-3279
ambient	-3280
▁č	-3281
pharmacy	-3282
▁bit	-3283
▁swe	-3284
123	-3285
billing	-3286
listen	-3287
Resets	-3288
technology	-3289
▁Y	-3290
birthday	-3291
ripheral	-3292
ogn	-3293
ör	-3294
Account	-3295
▁without	-3296
▁anonymous	-3297
GOOGL	-3298
456	-3299
▁browsing	-3300
▁topics	-3301
▁apps	-3302
▁listener	-3303
▁context	-3304
sms	-3305
GBP	-3306
▁accessibility	-3307
▁fer	-3308
job	-3309
▁para	-3310
ognito	-3311
ntertainment	-3312
ло	-3313
Budget	-3314
Wi	-3315
▁random	-3316
▁nume	-3317
lic	-3318
ulance	-3319
▁speaker	-3320
transport	-3321
ny	-3322
▁panoram	-3323
▁places	-3324
▁job	-3325
scrolling	-3326
storage	-3327
αι	-3328
vacuum	-3329
▁porch	-3330
▁Set	-3331
ipment	-3332
▁streaming	-3333
politics	-3334
▁sweep	-3335
▁responses	-3336
Block	-3337
mensi	-3338
score	-3339
▁panoramic	-3340
robot	-3341
xed	-3342
roshi	-3343
▁120	-3344
gram	-3345
indoor	-3346
being	-3347
beach	-3348
▁your	-3349
▁historical	-3350
▁URI	-3351
Rating	-3352
▁wellbeing	-3353
ер	-3354
▁fall	-3355
ursing	-3356
orn	-3357
▁anno	-3358
▁IDs	-3359
incognito	-3360
ää	-3361
disturb	-3362
▁gi	-3363
▁wet	-3364
▁only	-3365
fire	-3366
▁reminders	-3367
":20	-3368
▁picture	-3369
seat	-3370
Rate	-3371
▁but	-3372
abe	-3373
▁peripheral	-3374
▁den	-3375
▁podcast	-3376
mm	-3377
veway	-3378
Reply	-3379
OS	-3380
▁unfollow	-3381
oxygen	-3382
Read	-3383
":30	-3384
▁ko	-3385
Auto	-3386
▁fetch	-3387
da	-3388
▁way	-3389
▁ε	-3390
▁ingredients	-3391
▁airplane	-3392
zy	-3393
▁person	-3394
▁lighting	-3395
rder	-3396
Leave	-3397
▁invi	-3398
▁metadata	-3399
symbols	-3400
▁consum	-3401
▁predefined	-3402
▁sunset	-3403
mensions	-3404
▁serial	-3405
▁responsible	-3406
▁storage	-3407
Call	-3408
connected	-3409
▁kan	-3410
▁taking	-3411
tot	-3412
alet	-3413
▁indic	-3414
Pickup	-3415
threshold	-3416
és	-3417
alories	-3418
podcast	-3419
newsletter	-3420
▁vacuum	-3421
▁pa	-3422
kitchen	-3423
icro	-3424
▁Clears	-3425
uro	-3426
login	-3427
.1	-3428
▁breathing	-3429
▁мо	-3430
until	-3431
vides	-3432
▁here	-3433
ffice	-3434
crop	-3435
▁'22	-3436
uf	-3437
riday	-3438
▁packing	-3439
Provides	-3440
▁SOS	-3441
onk	-3442
Inst	-3443
sch	-3444
Speech	-3445
blinds	-3446
bra	-3447
cancellation	-3448
▁unpin	-3449
▁indoor	-3450
▁στ	-3451
forward	-3452
systolic	-3453
diastolic	-3454
▁у	-3455
▁shortcut	-3456
ть	-3457
elevation	-3458
oga	-3459
nack	-3460
subscribe	-3461
resources	-3462
▁It	-3463
že	-3464
▁map	-3465
▁т	-3466
▁final	-3467
▁'22:00'.","	-3468
▁questions	-3469
Un	-3470
Saves	-3471
internet	-3472
repeat	-3473
bpm	-3474
ambulance	-3475
ometer	-3476
▁'07	-3477
Turns	-3478
▁sti	-3479
▁16	-3480
Man	-3481
▁will	-3482
▁allowed	-3483
▁whether	-3484
00}}]	-3485
cession	-3486
▁know	-3487
lag	-3488
пи	-3489
Restart	-3490
▁indi	-3491
sert	-3492
▁every	-3493
▁consumption	-3494
▁equipment	-3495
▁kill	-3496
▁'07:00'.","	-3497
notification	-3498
events	-3499
-5	-3500
▁succession	-3501
hazard	-3502
electric	-3503
39	-3504
accident	-3505
ross	-3506
_0	-3507
yn	-3508
playing	-3509
▁до	-3510
▁charge	-3511
medical	-3512
sis	-3513
▁months	-3514
Currency	-3515
▁ми	-3516
▁exact	-3517
vidual	-3518
construction	-3519
connection	-3520
▁tool	-3521
ien	-3522
▁Do	-3523
autofill	-3524
resume	-3525
ups	-3526
yes	-3527
ders	-3528
Like	-3529
isten	-3530
▁nap	-3531
▁interactive	-3532
driveway	-3533
ficiency	-3534
penses	-3535
odometer	-3536
ires	-3537
▁est	-3538
▁sensors	-3539
▁tw	-3540
▁entertainment	-3541
▁individual	-3542
▁seat	-3543
Pay	-3544
jp	-3545
▁про	-3546
gan	-3547
lapsed	-3548
▁cast	-3549
iew	-3550
▁blinds	-3551
▁linked	-3552
kt	-3553
len	-3554
":12	-3555
state	-3556
▁among	-3557
Res	-3558
да	-3559
define	-3560
document	-3561
▁identified	-3562
_01	-3563
https	-3564
aster	-3565
Dispenses	-3566
always	-3567
Initiate	-3568
ying	-3569
vpn	-3570
▁travel	-3571
ready	-3572
rough	-3573
▁mate	-3574
Unfollow	-3575
roring	-3576
emails	-3577
totp	-3578
▁signal	-3579
▁oxygen	-3580
▁tu	-3581
▁για	-3582
▁Friday	-3583
▁scrolling	-3584
station	-3585
sibility	-3586
▁login	-3587
▁robot	-3588
nging	-3589
▁elapsed	-3590
▁hey	-3591
▁ко	-3592
'.",	-3593
Kitchen	-3594
Order	-3595
wame	-3596
▁these	-3597
Split	-3598
▁mirroring	-3599
▁server	-3600
jn	-3601
▁through	-3602
▁να	-3603
▁already	-3604
groceries	-3605
▁tempo	-3606
▁ni	-3607
▁micro	-3608
extra	-3609
View	-3610
audiobook	-3611
ane	-3612
-01	-3613
▁kitchen	-3614
minimize	-3615
▁gra	-3616
parti	-3617
living	-3618
▁logs	-3619
mobile	-3620
▁Uses	-3621
titles	-3622
ination	-3623
miles	-3624
Ren	-3625
ρα	-3626
shuffle	-3627
▁functionality	-3628
▁beats	-3629
izes	-3630
▁Al	-3631
breach	-3632
prinklers	-3633
▁resum	-3634
чи	-3635
▁EV	-3636
Summarize	-3637
ached	-3638
▁bec	-3639
▁ther	-3640
aci	-3641
":5}}]	-3642
▁observed	-3643
▁е	-3644
ди	-3645
▁să	-3646
thermostat	-3647
▁resolution	-3648
Di	-3649
Office	-3650
inactive	-3651
Go	-3652
2"}}]	-3653
chase	-3654
duce	-3655
terday	-3656
visible	-3657
provi	-3658
▁taken	-3659
cop	-3660
▁ik	-3661
party	-3662
▁points	-3663
▁occur	-3664
▁okay	-3665
dock	-3666
▁determin	-3667
▁severity	-3668
▁quit	-3669
Renders	-3670
maximize	-3671
saving	-3672
server	-3673
▁because	-3674
▁Speakers	-3675
Date	-3676
▁live	-3677
▁resuming	-3678
metrics	-3679
▁vend	-3680
fc	-3681
▁annotation	-3682
lix	-3683
ondon	-3684
▁across	-3685
▁act	-3686
ND	-3687
lated	-3688
bedroom	-3689
ided	-3690
▁edit	-3691
Manually	-3692
rece	-3693
▁mem	-3694
calls	-3695
Listen	-3696
▁analyz	-3697
Bu	-3698
ebook	-3699
space	-3700
hotspot	-3701
romo	-3702
1","	-3703
▁2.0).","	-3704
▁guided	-3705
▁stops	-3706
▁grid	-3707
ма	-3708
▁analyzed	-3709
▁thermostat	-3710
ks	-3711
▁material	-3712
▁memory	-3713
Bookmark	-3714
▁kilometer	-3715
▁cleaner	-3716
▁reach	-3717
▁secon	-3718
ms	-3719
▁Not	-3720
či	-3721
▁emp	-3722
flix	-3723
▁pas	-3724
percent	-3725
▁dirty	-3726
telemetry	-3727
cho	-3728
Force	-3729
▁stay	-3730
Install	-3731
▁plus	-3732
abase	-3733
▁vendor	-3734
abling	-3735
▁garage	-3736
▁manual	-3737
▁audiobook	-3738
▁always	-3739
▁та	-3740
▁pour	-3741
plate	-3742
▁connection	-3743
▁external	-3744
▁tom	-3745
▁prevent	-3746
unread	-3747
dz	-3748
entry	-3749
▁say	-3750
▁Dist	-3751
▁symbols	-3752
copies	-3753
▁DND	-3754
▁trends	-3755
▁microphone	-3756
▁fi	-3757
▁confirmed	-3758
▁fuel	-3759
yo	-3760
▁driving	-3761
Cooking	-3762
plac	-3763
▁mod	-3764
flashlight	-3765
Cast	-3766
▁ка	-3767
":7	-3768
▁height	-3769
▁Monitor	-3770
ipts	-3771
▁hal	-3772
answer	-3773
acture	-3774
ctive	-3775
markup	-3776
lunch	-3777
▁determine	-3778
hboard	-3779
Pause	-3780
▁til	-3781
▁Disturb	-3782
radio	-3783
seating	-3784
gb	-3785
done	-3786
FC	-3787
partment	-3788
ximize	-3789
gge	-3790
▁calcul	-3791
▁layout	-3792
▁subscribe	-3793
▁recipe	-3794
sprinklers	-3795
▁moderate	-3796
nfc	-3797
waypoint	-3798
▁manuf	-3799
▁proficiency	-3800
cam	-3801
▁sou	-3802
▁eng	-3803
▁nursing	-3804
Buy	-3805
▁sun	-3806
acturer	-3807
ushes	-3808
provider	-3809
stra	-3810
▁head	-3811
calories	-3812
frame	-3813
25	-3814
▁replac	-3815
▁second	-3816
ada	-3817
ev	-3818
only	-3819
▁manufacturer	-3820
▁marked	-3821
għ	-3822
▁CP	-3823
▁visibility	-3824
az	-3825
▁pass	-3826
oney	-3827
Podcast	-3828
jo	-3829
Change	-3830
remove	-3831
Password	-3832
vies	-3833
▁(0-100	-3834
ish	-3835
во	-3836
sa	-3837
ль	-3838
▁finish	-3839
yoga	-3840
March	-3841
▁year	-3842
39-1	-3843
Up	-3844
▁CPU	-3845
▁qui	-3846
tilities	-3847
▁rendered	-3848
rief	-3849
▁yard	-3850
brush	-3851
▁van	-3852
ofence	-3853
loads	-3854
▁639-1	-3855
tains	-3856
▁не	-3857
detected	-3858
▁NFC	-3859
▁disk	-3860
▁Mic	-3861
▁300	-3862
▁tal	-3863
User	-3864
flo	-3865
▁define	-3866
_22	-3867
▁empty	-3868
▁coffee	-3869
evaluate	-3870
jpg	-3871
▁blocking	-3872
ato	-3873
▁declined	-3874
em	-3875
sole	-3876
▁workspace	-3877
▁width	-3878
available	-3879
▁Pri	-3880
66	-3881
ай	-3882
▁groceries	-3883
▁16).","	-3884
▁money	-3885
▁database	-3886
snack	-3887
▁flashlight	-3888
▁occurred	-3889
months	-3890
▁append	-3891
▁bottle	-3892
▁(24	-3893
broadcast	-3894
cool	-3895
long	-3896
▁her	-3897
insert	-3898
Subscribe	-3899
▁copies	-3900
unches	-3901
▁che	-3902
▁dashboard	-3903
▁In	-3904
▁forget	-3905
irrigation	-3906
▁(0-100).","	-3907
лу	-3908
char	-3909
pos	-3910
ov	-3911
▁additional	-3912
▁defined	-3913
perating	-3914
skip	-3915
▁ri	-3916
▁wi	-3917
▁FM	-3918
tor	-3919
centration	-3920
asic	-3921
▁voor	-3922
▁changes	-3923
curtains	-3924
arri	-3925
nozzle	-3926
selection	-3927
soli	-3928
produce	-3929
21	-3930
Uploads	-3931
▁metr	-3932
▁(0-5	-3933
▁10:00'.","	-3934
duplicate	-3935
year	-3936
Look	-3937
▁token	-3938
Audio	-3939
▁(1	-3940
thing	-3941
23-1	-3942
▁purpo	-3943
aking	-3944
asta	-3945
▁13:30	-3946
pick	-3947
▁(0-59	-3948
▁review	-3949
disabling	-3950
erated	-3951
▁1:	-3952
▁се	-3953
▁descri	-3954
▁two	-3955
▁pros	-3956
▁performs	-3957
London	-3958
▁Fatima	-3959
brary	-3960
▁od	-3961
▁'45	-3962
Resume	-3963
aid	-3964
clim	-3965
▁searching	-3966
▁house	-3967
▁13:00	-3968
ba	-3969
▁1:50	-3970
cination	-3971
recipe	-3972
▁diastolic	-3973
▁systolic	-3974
yesterday	-3975
reezer	-3976
▁(0-59).","	-3977
resul	-3978
78	-3979
▁think	-3980
Minimize	-3981
▁cancelled	-3982
noise	-3983
▁breakdown	-3984
▁sure	-3985
Maximize	-3986
▁ranging	-3987
breakfast	-3988
εί	-3989
ui	-3990
forget	-3991
▁than	-3992
pear	-3993
Audiobook	-3994
FA	-3995
▁HH	-3996
▁top	-3997
▁standard	-3998
ining	-3999
▁purposes	-4000
▁crite	-4001
Autofill	-4002
TP	-4003
▁cance	-4004
onom	-4005
▁receive	-4006
▁encode	-4007
▁delay	-4008
▁ki	-4009
▁loop	-4010
receipts	-4011
Mirror	-4012
recurring	-4013
▁att	-4014
▁criteria	-4015
mula	-4016
▁What	-4017
▁sen	-4018
▁dishwasher	-4019
▁reset	-4020
▁nutrition	-4021
TO	-4022
disarm	-4023
vered	-4024
▁brief	-4025
▁initiate	-4026
▁13:30'.","	-4027
▁trying	-4028
hiking	-4029
▁shows	-4030
disconnect	-4031
spam	-4032
га	-4033
itinerary	-4034
\"	-4035
ulation	-4036
oot	-4037
scale	-4038
▁adjustment	-4039
▁13:00',	-4040
gment	-4041
')","	-4042
urope	-4043
the	-4044
▁snooze	-4045
anks	-4046
▁ran	-4047
▁jag	-4048
▁techn	-4049
▁recently	-4050
boarding	-4051
▁disarm	-4052
же	-4053
SON	-4054
▁så	-4055
▁quantity	-4056
▁measurement	-4057
rigin	-4058
related	-4059
cor	-4060
▁unread	-4061
Air	-4062
wallpaper	-4063
geofence	-4064
tering	-4065
gi	-4066
▁sprinkler	-4067
▁og	-4068
unds	-4069
stats	-4070
▁formula	-4071
▁many	-4072
▁uz	-4073
▁operating	-4074
tract	-4075
dish	-4076
ister	-4077
declined	-4078
Print	-4079
concentration	-4080
▁rest	-4081
lob	-4082
▁gig	-4083
▁climbing	-4084
confirmed	-4085
▁applic	-4086
multi	-4087
timeout	-4088
obser	-4089
▁sto	-4090
opy	-4091
ods	-4092
▁bring	-4093
▁fertilizer	-4094
iroshi	-4095
added	-4096
scan	-4097
ня	-4098
oint	-4099
▁left	-4100
nostic	-4101
ilk	-4102
ür	-4103
Europe	-4104
▁maybe	-4105
▁""},	-4106
."}}]	-4107
dishwasher	-4108
▁yet	-4109
ста	-4110
tur	-4111
ublic	-4112
▁те	-4113
▁0-100	-4114
Arm	-4115
sent	-4116
mind	-4117
dening	-4118
▁purchase	-4119
▁booking	-4120
TOTP	-4121
alizes	-4122
▁och	-4123
▁correct	-4124
its	-4125
▁pal	-4126
▁website	-4127
▁radio	-4128
ceed	-4129
▁plans	-4130
has	-4131
▁scan	-4132
lied	-4133
rental	-4134
▁focu	-4135
▁don	-4136
▁siren	-4137
▁JSON	-4138
▁actually	-4139
▁tomorrow	-4140
▁noise	-4141
float	-4142
9","	-4143
ctivity	-4144
▁τη	-4145
▁engine	-4146
first	-4147
dius	-4148
Ends	-4149
▁lu	-4150
Webcam	-4151
Apply	-4152
▁breach	-4153
kk	-4154
▁Find	-4155
BL	-4156
▁since	-4157
stam	-4158
▁reached	-4159
▁ten	-4160
results	-4161
ве	-4162
local	-4163
▁24-	-4164
care	-4165
▁mal	-4166
observed	-4167
▁cook	-4168
nual	-4169
▁pot	-4170
short	-4171
PR	-4172
▁leaves	-4173
▁det	-4174
wav	-4175
▁times	-4176
oro	-4177
Ind	-4178
▁sort	-4179
▁jo	-4180
▁focused	-4181
▁applicable	-4182
abor	-4183
жи	-4184
▁selected	-4185
▁scale	-4186
0}},{"	-4187
▁ent	-4188
▁filtr	-4189
▁tri	-4190
Daily	-4191
DF	-4192
structions	-4193
itness	-4194
uts	-4195
▁amb	-4196
plicit	-4197
▁sound	-4198
Minimum	-4199
vis	-4200
multiple	-4201
▁readings	-4202
▁tä	-4203
▁much	-4204
estimated	-4205
▁ka	-4206
charger	-4207
▁halts	-4208
0.	-4209
bs	-4210
по	-4211
Initializes	-4212
Copy	-4213
easy	-4214
mixed	-4215
▁und	-4216
▁shared	-4217
▁spent	-4218
symptom	-4219
arrive	-4220
Sk	-4221
▁saving	-4222
ables	-4223
Username	-4224
▁Ar	-4225
Indic	-4226
pickup	-4227
▁metronome	-4228
▁PDF	-4229
▁resur	-4230
▁studi	-4231
▁för	-4232
ени	-4233
Indicates	-4234
▁organ	-4235
aming	-4236
▁atten	-4237
shortcut	-4238
Hour	-4239
τα	-4240
esla	-4241
▁inste	-4242
longitude	-4243
▁Je	-4244
▁pra	-4245
▁iti	-4246
▁sz	-4247
ES	-4248
appear	-4249
io	-4250
reply	-4251
pulse	-4252
Station	-4253
▁contain	-4254
▁Checks	-4255
Pods	-4256
2,	-4257
replacement	-4258
sting	-4259
▁jeg	-4260
▁reappear	-4261
▁evaluate	-4262
▁raw	-4263
▁от	-4264
supp	-4265
Schedule	-4266
latitude	-4267
▁και	-4268
▁resurface	-4269
▁vet	-4270
Unique	-4271
routines	-4272
Flight	-4273
▁turns	-4274
▁constra	-4275
▁analyze	-4276
▁aut	-4277
Snap	-4278
▁todo	-4279
▁für	-4280
▁geographic	-4281
▁om	-4282
▁members	-4283
▁breastfeeding	-4284
▁bibliographic	-4285
▁bl	-4286
▁previously	-4287
▁hide	-4288
Finds	-4289
ingredient	-4290
ync	-4291
▁weight	-4292
▁gardening	-4293
JBL	-4294
streaming	-4295
▁indicating	-4296
fies	-4297
▁basic	-4298
leave	-4299
▁gigaby	-4300
▁arrives	-4301
pinned	-4302
hotels	-4303
school	-4304
meters	-4305
▁audi	-4306
де	-4307
ney	-4308
мо	-4309
potify	-4310
ww	-4311
▁rain	-4312
fication	-4313
ested	-4314
Explicit	-4315
ме	-4316
▁mijn	-4317
NPR	-4318
pted	-4319
txt	-4320
▁sender	-4321
▁observation	-4322
":10}}]	-4323
_20	-4324
▁ringing	-4325
▁Is	-4326
▁select	-4327
▁mis	-4328
▁id	-4329
▁constraint	-4330
▁pH	-4331
▁som	-4332
▁gigabytes	-4333
tima	-4334
ві	-4335
▁Use	-4336
_33	-4337
▁cards	-4338
pare	-4339
Show	-4340
lick	-4341
▁feature	-4342
ountain	-4343
▁disconnect	-4344
▁instead	-4345
01.1	-4346
ged	-4347
Data	-4348
▁calculations	-4349
▁routines	-4350
▁timeframe	-4351
Booking	-4352
ся	-4353
▁https	-4354
▁channel	-4355
ointment	-4356
▁module	-4357
▁expires	-4358
trim	-4359
rehensi	-4360
▁stations	-4361
▁guide	-4362
perties	-4363
▁spam	-4364
▁iz	-4365
▁itinerary	-4366
Schedules	-4367
rehensive	-4368
▁flow	-4369
connector	-4370
▁del	-4371
▁5).","	-4372
La	-4373
ggs	-4374
AirPods	-4375
▁So	-4376
amping	-4377
▁'101.1	-4378
-7	-4379
charge	-4380
▁let	-4381
dimensions	-4382
▁group	-4383
tend	-4384
_11	-4385
▁canceled	-4386
▁cla	-4387
5,"	-4388
ní	-4389
▁constraints	-4390
▁timeout	-4391
▁musical	-4392
▁comprehensive	-4393
opacity	-4394
▁heavy	-4395
▁boarding	-4396
▁math	-4397
arah	-4398
yscale	-4399
origin	-4400
▁requested	-4401
token	-4402
life	-4403
▁lin	-4404
atory	-4405
phabe	-4406
Location	-4407
▁average	-4408
":9	-4409
▁sam	-4410
tone	-4411
'?	-4412
ora	-4413
▁filtering	-4414
▁ak	-4415
▁render	-4416
▁overw	-4417
▁cu	-4418
▁sessions	-4419
▁cap	-4420
stamps	-4421
pression	-4422
ideas	-4423
lt	-4424
▁'3	-4425
лю	-4426
ina	-4427
▁program	-4428
gr	-4429
substitution	-4430
555	-4431
▁console	-4432
▁applied	-4433
▁30,	-4434
slow	-4435
abi	-4436
los	-4437
▁units	-4438
exchange	-4439
Skip	-4440
ntru	-4441
▁200	-4442
severity	-4443
travel	-4444
▁pentru	-4445
":3}}]	-4446
▁bra	-4447
▁ambient	-4448
()	-4449
▁audible	-4450
▁updated	-4451
▁triggers	-4452
renu	-4453
▁pronunciation	-4454
ssa	-4455
▁office	-4456
kg	-4457
▁object	-4458
ientific	-4459
ptive	-4460
astered	-4461
aded	-4462
▁minu	-4463
todo	-4464
API	-4465
▁users	-4466
▁multiple	-4467
▁terms	-4468
▁covered	-4469
tio	-4470
heat	-4471
▁rating	-4472
▁saves	-4473
▁для	-4474
▁μου	-4475
normal	-4476
Format	-4477
▁thanks	-4478
UA	-4479
▁low	-4480
▁collar	-4481
les	-4482
ту	-4483
▁pin	-4484
▁exchange	-4485
waypoints	-4486
-05	-4487
Exports	-4488
ky	-4489
▁expression	-4490
▁interface	-4491
ере	-4492
▁extr	-4493
▁exten	-4494
▁sal	-4495
dium	-4496
tasks	-4497
▁scientific	-4498
▁preference	-4499
▁descriptive	-4500
lient	-4501
phy	-4502
▁utilities	-4503
▁stro	-4504
ers	-4505
ollabor	-4506
HA	-4507
flights	-4508
▁seating	-4509
▁parked	-4510
▁connectivity	-4511
4","	-4512
▁az	-4513
▁library	-4514
▁то	-4515
▁manip	-4516
▁manipulation	-4517
renuous	-4518
Evaluate	-4519
MO	-4520
▁tele	-4521
▁kun	-4522
ringtone	-4523
▁reply	-4524
metronome	-4525
▁60,	-4526
▁Rap	-4527
URL	-4528
every	-4529
▁instructions	-4530
DL	-4531
Formats	-4532
watchlist	-4533
city	-4534
getables	-4535
ám	-4536
ρο	-4537
хо	-4538
▁weekday	-4539
ickname	-4540
ži	-4541
allowed	-4542
5}}]	-4543
avi	-4544
rand	-4545
123',	-4546
Disconnect	-4547
zed	-4548
phabetical	-4549
tan	-4550
▁120,	-4551
πο	-4552
▁diag	-4553
nks	-4554
▁replace	-4555
▁ну	-4556
delay	-4557
▁postal	-4558
▁expired	-4559
▁soli	-4560
▁Rapid	-4561
▁overlay	-4562
456'.","	-4563
▁RapidAPI	-4564
sz	-4565
▁replacing	-4566
pi	-4567
Tesla	-4568
▁hotels	-4569
▁generated	-4570
▁ä	-4571
ну	-4572
▁25	-4573
▁Start	-4574
▁к	-4575
ici	-4576
▁admin	-4577
▁categ	-4578
pair	-4579
push	-4580
▁seen	-4581
▁etc	-4582
▁permitted	-4583
ahead	-4584
nces	-4585
alphabetical	-4586
deMO	-4587
HAdeMO	-4588
fatima	-4589
▁der	-4590
omod	-4591
▁studied	-4592
▁partial	-4593
▁turned	-4594
CS	-4595
▁Default	-4596
ula	-4597
properties	-4598
heavy	-4599
when	-4600
aka	-4601
ec	-4602
▁ich	-4603
ita	-4604
less	-4605
omodoro	-4606
▁saying	-4607
fry	-4608
▁voting	-4609
Forget	-4610
▁prosím	-4611
participant	-4612
grayscale	-4613
▁sets	-4614
▁stays	-4615
▁pulse	-4616
Display	-4617
mits	-4618
▁dry	-4619
▁mand	-4620
Timeout	-4621
Minutes	-4622
2.	-4623
▁mit	-4624
Sort	-4625
▁300).","	-4626
▁numerical	-4627
▁motor	-4628
Record	-4629
climate	-4630
anish	-4631
▁tracked	-4632
▁gal	-4633
▁eh	-4634
ite	-4635
Tag	-4636
EST	-4637
eco	-4638
ando	-4639
▁έ	-4640
▁ku	-4641
ssible	-4642
▁analysis	-4643
ferences	-4644
▁Get	-4645
cooker	-4646
num	-4647
▁г	-4648
astery	-4649
ми	-4650
▁collabor	-4651
▁US	-4652
▁va	-4653
▁autonom	-4654
Temperature	-4655
append	-4656
ру	-4657
▁locate	-4658
▁Since	-4659
species	-4660
Dish	-4661
Run	-4662
▁Mateo	-4663
ful	-4664
CCS	-4665
▁they	-4666
ana	-4667
Return	-4668
replace	-4669
ani	-4670
▁στο	-4671
λε	-4672
ál	-4673
▁other	-4674
▁proceed	-4675
vance	-4676
▁mission	-4677
▁autonomous	-4678
":120	-4679
▁nie	-4680
.)	-4681
flashcards	-4682
▁climate	-4683
▁pu	-4684
▁(1-7	-4685
▁(1-7).","	-4686
jun	-4687
▁resource	-4688
cups	-4689
μα	-4690
▁har	-4691
cs	-4692
▁ви	-4693
▁cou	-4694
ár	-4695
▁stroke	-4696
▁bitte	-4697
▁camping	-4698
Export	-4699
good	-4700
renew	-4701
▁transfer	-4702
▁cars	-4703
ves	-4704
▁diagnostic	-4705
▁segment	-4706
transcribe	-4707
rename	-4708
pasta	-4709
choice	-4710
brant	-4711
lbs	-4712
loaded	-4713
ca	-4714
▁termin	-4715
▁flights	-4716
▁remind	-4717
▁both	-4718
register	-4719
rain	-4720
▁someone	-4721
▁Se	-4722
▁technical	-4723
attemp	-4724
eah	-4725
drinks	-4726
▁movement	-4727
▁lines	-4728
vegetables	-4729
formatted	-4730
CHAdeMO	-4731
ben	-4732
overnight	-4733
":30}}]	-4734
▁getting	-4735
Locate	-4736
cz	-4737
▁dog	-4738
rice	-4739
Pin	-4740
▁het	-4741
Submits	-4742
▁Priya	-4743
pect	-4744
_9	-4745
lis	-4746
attempt	-4747
anna	-4748
patch	-4749
4',	-4750
eggs	-4751
▁easy	-4752
qui	-4753
turbo	-4754
▁hex	-4755
witches	-4756
Current	-4757
▁inc	-4758
oriti	-4759
zones	-4760
chick	-4761
▁disc	-4762
▁numbers	-4763
collage	-4764
quick	-4765
":15}}]	-4766
but	-4767
luid	-4768
▁heatw	-4769
▁cooker	-4770
reheat	-4771
▁overwrite	-4772
▁ce	-4773
ση	-4774
diting	-4775
fuel	-4776
▁arra	-4777
▁lear	-4778
▁alongside	-4779
arranties	-4780
gis	-4781
▁mul	-4782
▁cities	-4783
ura	-4784
trast	-4785
▁timezones	-4786
▁release	-4787
flash	-4788
chicken	-4789
termilk	-4790
jem	-4791
promo	-4792
1"}}]	-4793
vaccination	-4794
▁cur	-4795
horn	-4796
15	-4797
80	-4798
ци	-4799
Preheat	-4800
height	-4801
▁invite	-4802
▁prevents	-4803
honk	-4804
▁eu	-4805
▁Am	-4806
▁/	-4807
iv	-4808
▁matter	-4809
▁led	-4810
▁she	-4811
▁enabled	-4812
launch	-4813
aks	-4814
subtitles	-4815
▁initial	-4816
▁imp	-4817
hie	-4818
▁kon	-4819
ска	-4820
▁stored	-4821
▁sit	-4822
▁substitution	-4823
▁chart	-4824
ars	-4825
alk	-4826
▁fo	-4827
▁till	-4828
▁book	-4829
expired	-4830
":5,"	-4831
lish	-4832
▁bus	-4833
▁appending	-4834
▁με	-4835
live	-4836
▁Send	-4837
▁prioriti	-4838
lena	-4839
▁prom	-4840
stitute	-4841
estination	-4842
▁uploaded	-4843
▁2024	-4844
Destination	-4845
rest	-4846
before	-4847
▁een	-4848
▁?	-4849
spo	-4850
ulu	-4851
buttermilk	-4852
▁hourly	-4853
▁é	-4854
cer	-4855
supplies	-4856
▁connector	-4857
▁substitute	-4858
Removes	-4859
ux	-4860
vibrant	-4861
▁agg	-4862
ás	-4863
grid	-4864
tinue	-4865
ρι	-4866
zing	-4867
rewind	-4868
▁Yuki	-4869
▁trigge	-4870
▁funds	-4871
▁mandatory	-4872
reminders	-4873
▁Hiroshi	-4874
▁grow	-4875
ista	-4876
▁haven	-4877
3","	-4878
maker	-4879
▁instantly	-4880
▁filtration	-4881
tos	-4882
ні	-4883
ас	-4884
fia	-4885
▁often	-4886
raft	-4887
át	-4888
сь	-4889
▁repair	-4890
▁sile	-4891
teri	-4892
▁ends	-4893
▁Me	-4894
▁minut	-4895
cery	-4896
Forward	-4897
▁ра	-4898
▁assignments	-4899
leaving	-4900
ribution	-4901
ря	-4902
Stre	-4903
▁asset	-4904
▁numeric	-4905
▁Dis	-4906
▁vy	-4907
":"/	-4908
sound	-4909
né	-4910
netflix	-4911
▁heating	-4912
tro	-4913
nie	-4914
gisters	-4915
Origin	-4916
doc	-4917
Registers	-4918
▁queue	-4919
▁fluid	-4920
▁possible	-4921
▁freezer	-4922
ши	-4923
▁"1	-4924
▁yeah	-4925
▁needs	-4926
_4	-4927
fon	-4928
uk	-4929
▁integer	-4930
invert	-4931
▁translation	-4932
ament	-4933
▁dispatch	-4934
до	-4935
utc	-4936
νο	-4937
än	-4938
eder	-4939
lat	-4940
ginner	-4941
▁mig	-4942
▁going	-4943
▁nutrient	-4944
vanced	-4945
▁watchlist	-4946
▁instru	-4947
colors	-4948
▁ready	-4949
▁ton	-4950
ду	-4951
▁Add	-4952
lle	-4953
▁ledger	-4954
▁sleeping	-4955
tenna	-4956
ported	-4957
0000	-4958
▁prioritize	-4959
":20}}]	-4960
urse	-4961
USB	-4962
ography	-4963
iry	-4964
▁thematic	-4965
spoons	-4966
▁medium	-4967
▁phonetic	-4968
hourly	-4969
Flag	-4970
jek	-4971
▁deadlines	-4972
▁kas	-4973
":2}}]	-4974
).",	-4975
old	-4976
ami	-4977
xi	-4978
blob	-4979
▁activate	-4980
▁envi	-4981
nglish	-4982
▁ju	-4983
▁preferences	-4984
▁favor	-4985
izza	-4986
▁dollar	-4987
▁port	-4988
":"2023-1	-4989
▁Search	-4990
▁achievement	-4991
":"555	-4992
cia	-4993
▁monito	-4994
▁drawings	-4995
▁preset	-4996
valet	-4997
ід	-4998
▁impact	-4999
correct	-5000
τι	-5001
lus	-5002
resolution	-5003
▁No	-5004
за	-5005
си	-5006
idden	-5007
-12	-5008
bon	-5009
zę	-5010
▁transport	-5011
}},	-5012
uj	-5013
istration	-5014
▁ca	-5015
▁frame	-5016
5","	-5017
deadline	-5018
▁го	-5019
ār	-5020
serial	-5021
▁attend	-5022
width	-5023
reme	-5024
зи	-5025
base	-5026
▁maker	-5027
Channel	-5028
ounces	-5029
▁feeling	-5030
▁measurements	-5031
eded	-5032
▁vol	-5033
mis	-5034
▁valet	-5035
че	-5036
▁sta	-5037
napshot	-5038
-20	-5039
▁nickname	-5040
feeder	-5041
▁milliseconds	-5042
▁appointment	-5043
▁Turn	-5044
▁ty	-5045
▁logged	-5046
▁learned	-5047
riz	-5048
клю	-5049
4,	-5050
logs	-5051
Where	-5052
cky	-5053
9"}}]	-5054
▁но	-5055
cas	-5056
example	-5057
APA	-5058
ón	-5059
.5}}]	-5060
alib	-5061
▁loo	-5062
Charge	-5063
▁silent	-5064
▁template	-5065
▁element	-5066
ado	-5067
▁horn	-5068
▁annual	-5069
.5,"	-5070
":45}}]	-5071
ret	-5072
jen	-5073
tablespoons	-5074
▁transcribe	-5075
▁wor	-5076
▁enables	-5077
33	-5078
▁objects	-5079
▁convection	-5080
sim	-5081
antenna	-5082
▁doors	-5083
▁500	-5084
expiry	-5085
▁onto	-5086
oothie	-5087
▁dar	-5088
пис	-5089
▁és	-5090
▁Uh	-5091
▁quiet	-5092
▁overnight	-5093
▁looking	-5094
Tok	-5095
manual	-5096
lan	-5097
brew	-5098
▁integr	-5099
се	-5100
▁tonight	-5101
solids	-5102
▁confi	-5103
Rename	-5104
500	-5105
▁environ	-5106
zn	-5107
▁meg	-5108
▁мен	-5109
▁essenti	-5110
▁ü	-5111
oni	-5112
εις	-5113
▁50-100	-5114
1,	-5115
umi	-5116
Fatima	-5117
▁kad	-5118
▁visit	-5119
▁pod	-5120
▁lap	-5121
trunk	-5122
roller	-5123
dig	-5124
▁subtitles	-5125
▁sending	-5126
strong	-5127
▁attende	-5128
▁invited	-5129
ercises	-5130
▁planning	-5131
▁ali	-5132
▁launches	-5133
▁\"	-5134
watching	-5135
▁555	-5136
▁už	-5137
continue	-5138
mend	-5139
Remote	-5140
sample	-5141
▁Open	-5142
▁elements	-5143
▁aggreg	-5144
uv	-5145
▁transpare	-5146
org	-5147
▁dimensions	-5148
ej	-5149
▁cru	-5150
▁conti	-5151
▁gym	-5152
Me	-5153
▁kö	-5154
nity	-5155
▁trunk	-5156
▁dan	-5157
akt	-5158
▁attendance	-5159
▁vertical	-5160
▁Kwame	-5161
uder	-5162
▁rewind	-5163
▁integrated	-5164
ες	-5165
▁gr	-5166
ISO	-5167
▁movies	-5168
prime	-5169
▁USD	-5170
бо	-5171
▁prompt	-5172
▁monitoring	-5173
notations	-5174
▁rendering	-5175
▁Tok	-5176
▁mus	-5177
riend	-5178
▁PM	-5179
▁sent	-5180
▁bibliography	-5181
▁ú	-5182
":60}}]	-5183
timestamp	-5184
etflix	-5185
▁hidden	-5186
▁jak	-5187
deadlines	-5188
▁ö	-5189
":"2024	-5190
ameter	-5191
▁40	-5192
Input	-5193
mar	-5194
▁intake	-5195
smart	-5196
Switches	-5197
▁auf	-5198
▁2',	-5199
▁1',	-5200
hosting	-5201
▁vari	-5202
▁array	-5203
▁amounts	-5204
▁ма	-5205
▁wifi	-5206
▁при	-5207
uo	-5208
yd	-5209
▁prote	-5210
▁sch	-5211
▁called	-5212
template	-5213
▁returned	-5214
omi	-5215
fertilizer	-5216
pa	-5217
▁rog	-5218
MLA	-5219
▁ur	-5220
dien	-5221
▁Pre	-5222
▁Create	-5223
▁var	-5224
▁flag	-5225
5,	-5226
yt	-5227
Chicago	-5228
▁None	-5229
Honk	-5230
▁diameter	-5231
▁exercises	-5232
Mo	-5233
monitor	-5234
component	-5235
▁cartridge	-5236
▁images	-5237
▁Amara	-5238
рі	-5239
Imports	-5240
▁spo	-5241
ctors	-5242
▁q	-5243
peti	-5244
▁Po	-5245
ég	-5246
▁calculate	-5247
mild	-5248
▁editing	-5249
atches	-5250
▁entries	-5251
▁Inst	-5252
hold	-5253
enji	-5254
▁ghosting	-5255
▁vä	-5256
▁pairs	-5257
van	-5258
sentation	-5259
▁Stop	-5260
pomodoro	-5261
000}}]	-5262
▁would	-5263
sync	-5264
▁essential	-5265
▁comments	-5266
verages	-5267
7","	-5268
▁бу	-5269
ID	-5270
▁put	-5271
▁Be	-5272
▁immediate	-5273
▁patter	-5274
▁14	-5275
dzu	-5276
nting	-5277
lej	-5278
▁collaborative	-5279
▁что	-5280
▁summarize	-5281
▁continu	-5282
▁consi	-5283
11	-5284
ube	-5285
ба	-5286
onna	-5287
сти	-5288
▁і	-5289
▁lä	-5290
▁radius	-5291
▁men	-5292
▁counter	-5293
Launches	-5294
▁controller	-5295
sto	-5296
▁part	-5297
brushes	-5298
▁age	-5299
▁strenuous	-5300
▁vai	-5301
▁dom	-5302
▁pag	-5303
resses	-5304
ising	-5305
▁accepted	-5306
af	-5307
ung	-5308
.2	-5309
mium	-5310
▁че	-5311
▁warranties	-5312
▁Te	-5313
▁cloud	-5314
7"}}]	-5315
▁rot	-5316
▁timestamps	-5317
▁zap	-5318
▁sticky	-5319
▁Log	-5320
▁ре	-5321
▁course	-5322
fession	-5323
▁promo	-5324
▁correctly	-5325
Rewind	-5326
orted	-5327
▁priority	-5328
▁silence	-5329
▁super	-5330
english	-5331
Flash	-5332
itko	-5333
ala	-5334
ini	-5335
му	-5336
сто	-5337
4"}}]	-5338
▁Kan	-5339
ér	-5340
▁keeps	-5341
▁Delete	-5342
▁mountain	-5343
▁needed	-5344
▁transparency	-5345
με	-5346
spanish	-5347
▁comm	-5348
▁kids	-5349
▁public	-5350
▁iš	-5351
▁attendees	-5352
rise	-5353
vere	-5354
▁hazardous	-5355
disney	-5356
▁reference	-5357
▁nä	-5358
▁localized	-5359
Be	-5360
▁ц	-5361
▁team	-5362
▁non	-5363
han	-5364
▁Li	-5365
▁из	-5366
σε	-5367
▁overview	-5368
▁noti	-5369
▁fitness	-5370
▁sing	-5371
το	-5372
па	-5373
":10,"	-5374
▁checking	-5375
kon	-5376
▁heatwaves	-5377
▁household	-5378
▁Instagram	-5379
hulu	-5380
Gro	-5381
Streaming	-5382
tional	-5383
ures	-5384
movies	-5385
πό	-5386
▁па	-5387
▁actors	-5388
lig	-5389
▁still	-5390
tta	-5391
▁extruder	-5392
▁backlight	-5393
Project	-5394
▁working	-5395
▁inventory	-5396
5.	-5397
▁invoice	-5398
▁sounding	-5399
achi	-5400
preference	-5401
contrast	-5402
-99	-5403
▁symptoms	-5404
rá	-5405
▁90	-5406
▁Ch	-5407
▁Di	-5408
▁ħ	-5409
▁click	-5410
vet	-5411
▁continuous	-5412
formula	-5413
▁brake	-5414
▁pie	-5415
fessional	-5416
▁ли	-5417
▁Ne	-5418
▁tam	-5419
▁exactly	-5420
▁How	-5421
▁safe	-5422
vu	-5423
ica	-5424
▁cruising	-5425
▁center	-5426
":20,"	-5427
▁ein	-5428
▁sem	-5429
▁Also	-5430
nik	-5431
acce	-5432
▁valve	-5433
Subtitle	-5434
uter	-5435
▁result	-5436
▁пере	-5437
dy	-5438
grow	-5439
▁hogy	-5440
жа	-5441
jective	-5442
beverages	-5443
▁sus	-5444
ais	-5445
▁mes	-5446
▁ext	-5447
sun	-5448
":30,"	-5449
▁ο	-5450
docx	-5451
zes	-5452
acebook	-5453
sem	-5454
?","	-5455
_123	-5456
▁photogra	-5457
lighting	-5458
▁flo	-5459
▁19	-5460
vin	-5461
zen	-5462
▁tie	-5463
lla	-5464
stency	-5465
▁Con	-5466
cht	-5467
":0.	-5468
▁palun	-5469
snapshot	-5470
nes	-5471
▁lunch	-5472
▁că	-5473
ogħ	-5474
▁br	-5475
ít	-5476
ming	-5477
▁consistency	-5478
▁single	-5479
▁solid	-5480
use	-5481
10	-5482
ped	-5483
▁wind	-5484
ried	-5485
5"}}]	-5486
:00","	-5487
789	-5488
▁toggles	-5489
▁una	-5490
▁ide	-5491
▁extension	-5492
▁bake	-5493
▁extreme	-5494
tracts	-5495
tence	-5496
:00"}}]	-5497
▁kol	-5498
offset	-5499
▁his	-5500
_66	-5501
▁laptop	-5502
▁values	-5503
sus	-5504
▁environmental	-5505
▁ek	-5506
▁near	-5507
▁är	-5508
manent	-5509
aced	-5510
ero	-5511
▁administration	-5512
":50,"	-5513
▁plants	-5514
▁ask	-5515
▁heading	-5516
▁ei	-5517
▁mar	-5518
-2	-5519
▁egy	-5520
▁les	-5521
ability	-5522
atu	-5523
overlay	-5524
▁že	-5525
▁import	-5526
hiroshi	-5527
.8	-5528
▁hmm	-5529
antiago	-5530
▁wake	-5531
":1}}]	-5532
▁meu	-5533
ключи	-5534
vest	-5535
alle	-5536
τά	-5537
▁stan	-5538
▁trim	-5539
▁severe	-5540
isitko	-5541
ics	-5542
▁manage	-5543
achieve	-5544
▁ahead	-5545
definition	-5546
▁mastered	-5547
▁dollars	-5548
▁addresses	-5549
▁tablet	-5550
▁exam	-5551
▁mixed	-5552
▁għal	-5553
'..","	-5554
ър	-5555
▁studying	-5556
▁cuts	-5557
▁Tokyo	-5558
transfer	-5559
review	-5560
":200,"	-5561
▁cas	-5562
▁appliances	-5563
beginner	-5564
▁leave	-5565
achieved	-5566
▁Jeg	-5567
mendations	-5568
1.	-5569
tool	-5570
":15,"	-5571
tre	-5572
▁pop	-5573
▁sunlight	-5574
mate	-5575
▁annotations	-5576
▁accounts	-5577
una	-5578
▁deci	-5579
program	-5580
pes	-5581
▁permanent	-5582
partial	-5583
yk	-5584
olved	-5585
▁wanna	-5586
▁ear	-5587
▁support	-5588
žeš	-5589
▁business	-5590
apa	-5591
▁fa	-5592
tips	-5593
▁specify	-5594
bok	-5595
▁finally	-5596
▁со	-5597
▁mastery	-5598
kend	-5599
▁offline	-5600
ία	-5601
▁lah	-5602
cont	-5603
json	-5604
▁soon	-5605
":3,"	-5606
cket	-5607
ino	-5608
ecute	-5609
▁quickly	-5610
▁Mi	-5611
▁Sarah	-5612
Fast	-5613
▁activi	-5614
▁ens	-5615
▁2023-1	-5616
▁tro	-5617
radius	-5618
▁practiced	-5619
▁την	-5620
år	-5621
zie	-5622
▁cameras	-5623
att	-5624
tet	-5625
▁mai	-5626
airo	-5627
▁List	-5628
lication	-5629
lling	-5630
▁gre	-5631
":"0	-5632
dity	-5633
▁pull	-5634
▁offici	-5635
assets	-5636
2.5	-5637
▁train	-5638
▁pred	-5639
▁dispen	-5640
company	-5641
mateo	-5642
render	-5643
frost	-5644
▁λ	-5645
aiting	-5646
":45,"	-5647
las	-5648
":50}}]	-5649
▁activities	-5650
▁preci	-5651
▁config	-5652
▁install	-5653
mission	-5654
ны	-5655
anaka	-5656
petition	-5657
▁ame	-5658
▁living	-5659
▁pos	-5660
▁cited	-5661
stones	-5662
▁ist	-5663
uto	-5664
iso	-5665
acted	-5666
▁found	-5667
hu	-5668
▁Ma	-5669
▁moving	-5670
τε	-5671
▁ве	-5672
▁promotional	-5673
ši	-5674
chan	-5675
▁mein	-5676
▁Mei	-5677
▁supplies	-5678
ama	-5679
▁naar	-5680
▁em	-5681
▁triggering	-5682
тра	-5683
▁even	-5684
ouT	-5685
▁bank	-5686
ouTube	-5687
▁opacity	-5688
▁oh	-5689
patches	-5690
▁sim	-5691
▁RSVPs	-5692
▁dim	-5693
▁him	-5694
▁posi	-5695
coordin	-5696
▁instrument	-5697
▁added	-5698
Dispatches	-5699
▁sounds	-5700
▁sum	-5701
▁clos	-5702
▁view	-5703
ational	-5704
▁moje	-5705
▁ста	-5706
би	-5707
tim	-5708
lities	-5709
duc	-5710
Fetch	-5711
▁cud	-5712
era	-5713
▁Sp	-5714
▁adds	-5715
":5}},{"	-5716
ban	-5717
▁our	-5718
▁types	-5719
var	-5720
▁kont	-5721
▁Ko	-5722
▁Ex	-5723
zt	-5724
sel	-5725
▁telefon	-5726
tage	-5727
_99","	-5728
▁Mo	-5729
īt	-5730
▁waiting	-5731
":4}}]	-5732
Fan	-5733
sur	-5734
vé	-5735
▁shi	-5736
▁country	-5737
ues	-5738
ury	-5739
omiting	-5740
sol	-5741
ublis	-5742
nger	-5743
uni	-5744
serve	-5745
verified	-5746
▁discount	-5747
▁ger	-5748
lass	-5749
jas	-5750
▁ме	-5751
мен	-5752
▁objective	-5753
▁fonts	-5754
vaj	-5755
▁telemetry	-5756
nen	-5757
priya	-5758
www	-5759
▁invert	-5760
freezer	-5761
▁definitions	-5762
▁wy	-5763
rei	-5764
▁charges	-5765
▁main	-5766
del	-5767
vates	-5768
8","	-5769
▁gonna	-5770
ico	-5771
▁las	-5772
▁Elena	-5773
▁rotations	-5774
▁passed	-5775
BN	-5776
▁speaking	-5777
Mateo	-5778
ут	-5779
▁aid	-5780
▁printing	-5781
▁identification	-5782
▁ben	-5783
▁ratio	-5784
prise	-5785
ftware	-5786
via	-5787
νε	-5788
▁Twitter	-5789
spection	-5790
amen	-5791
▁си	-5792
▁away	-5793
profile	-5794
ye	-5795
▁Chen	-5796
▁birthday	-5797
dry	-5798
"}},	-5799
jekt	-5800
arest	-5801
_10	-5802
havi	-5803
Pre	-5804
▁lista	-5805
umidity	-5806
▁maintaining	-5807
▁speech	-5808
αλ	-5809
▁beh	-5810
▁fresh	-5811
▁jogħ	-5812
translation	-5813
ular	-5814
aro	-5815
▁Su	-5816
▁Just	-5817
▁red	-5818
metric	-5819
▁colors	-5820
мі	-5821
▁compartment	-5822
▁IS	-5823
▁worried	-5824
▁sample	-5825
▁invol	-5826
▁containing	-5827
▁Spotify	-5828
▁Oh	-5829
":18	-5830
ază	-5831
kit	-5832
kwame	-5833
havior	-5834
пра	-5835
▁tires	-5836
▁spoken	-5837
▁assets	-5838
▁sy	-5839
▁150	-5840
▁τι	-5841
▁lahko	-5842
▁photograph	-5843
▁σε	-5844
learning	-5845
ontal	-5846
laus	-5847
box	-5848
raš	-5849
▁18	-5850
▁х	-5851
outdoor	-5852
▁Ik	-5853
лед	-5854
▁Hmm	-5855
▁stuck	-5856
kel	-5857
▁Ti	-5858
gue	-5859
νη	-5860
yuki	-5861
▁бо	-5862
vers	-5863
▁skin	-5864
▁categori	-5865
▁categories	-5866
▁stri	-5867
▁kur	-5868
об	-5869
▁behavior	-5870
98	-5871
Modi	-5872
▁computer	-5873
Modifies	-5874
pack	-5875
▁ensure	-5876
ча	-5877
advanced	-5878
▁valid	-5879
▁client	-5880
lack	-5881
▁pla	-5882
▁specifying	-5883
gle	-5884
Side	-5885
▁positive	-5886
▁son	-5887
▁professional	-5888
▁involves	-5889
▁lai	-5890
▁disabled	-5891
Marks	-5892
▁ISBN	-5893
solid	-5894
wa	-5895
-10	-5896
▁extra	-5897
3"}}]	-5898
ano	-5899
tier	-5900
▁cer	-5901
eri	-5902
▁cat	-5903
":12}}]	-5904
▁excur	-5905
▁τα	-5906
▁x	-5907
лі	-5908
▁confirm	-5909
▁everything	-5910
▁navi	-5911
3,	-5912
▁botan	-5913
▁parameters	-5914
▁88	-5915
▁potre	-5916
ικ	-5917
▁""}}},	-5918
mati	-5919
vat	-5920
▁lige	-5921
Des	-5922
Cuts	-5923
complete	-5924
▁distr	-5925
_101	-5926
fonts	-5927
▁native	-5928
▁portal	-5929
une	-5930
öö	-5931
▁aggregated	-5932
▁fu	-5933
zu	-5934
▁busy	-5935
▁Update	-5936
▁titled	-5937
▁kā	-5938
preheat	-5939
▁hier	-5940
look	-5941
owe	-5942
▁An	-5943
astav	-5944
lik	-5945
intermediate	-5946
▁Le	-5947
▁ga	-5948
▁botanical	-5949
▁fertili	-5950
mastered	-5951
smoothie	-5952
▁Cha	-5953
gps	-5954
▁foto	-5955
▁qed	-5956
kl	-5957
▁jekk	-5958
vestment	-5959
porary	-5960
hn	-5961
▁pati	-5962
det	-5963
stu	-5964
▁Sh	-5965
▁filters	-5966
sec	-5967
vomiting	-5968
луш	-5969
▁Okay	-5970
usi	-5971
▁zip	-5972
zo	-5973
kun	-5974
ratio	-5975
▁nighttime	-5976
▁rent	-5977
▁vaccination	-5978
▁prosim	-5979
▁съ	-5980
▁80	-5981
umeric	-5982
000,"	-5983
!"}}]	-5984
▁counts	-5985
lij	-5986
zd	-5987
▁While	-5988
▁sentence	-5989
▁cleaning	-5990
▁во	-5991
▁пре	-5992
public	-5993
▁located	-5994
:15	-5995
▁rela	-5996
ral	-5997
ens	-5998
Publis	-5999
aspect	-6000
▁configuration	-6001
▁Qu	-6002
▁walking	-6003
▁äh	-6004
▁organiz	-6005
Publishes	-6006
▁aj	-6007
Cancels	-6008
Pushes	-6009
▁une	-6010
▁terrain	-6011
▁stool	-6012
кі	-6013
▁Th	-6014
▁walk	-6015
cessful	-6016
▁replaced	-6017
▁survi	-6018
▁mind	-6019
▁origin	-6020
▁99	-6021
▁cancels	-6022
▁Switch	-6023
▁Facebook	-6024
exten	-6025
▁εί	-6026
":2,"	-6027
▁хо	-6028
▁Share	-6029
ей	-6030
ough	-6031
cing	-6032
▁tai	-6033
▁τον	-6034
_2024	-6035
pan	-6036
key	-6037
matically	-6038
ins	-6039
missed	-6040
▁alph	-6041
▁schedules	-6042
▁might	-6043
ante	-6044
▁exported	-6045
▁Kenji	-6046
lier	-6047
anumeric	-6048
▁alphanumeric	-6049
ρό	-6050
▁game	-6051
▁effective	-6052
▁cache	-6053
τη	-6054
▁repairs	-6055
▁App	-6056
eu	-6057
▁survival	-6058
▁appro	-6059
▁colle	-6060
▁mechan	-6061
γο	-6062
ida	-6063
▁free	-6064
▁excursion	-6065
▁Min	-6066
▁sty	-6067
ht	-6068
cipitation	-6069
crib	-6070
oj	-6071
ekend	-6072
▁names	-6073
ump	-6074
▁recommendations	-6075
▁ett	-6076
maining	-6077
partments	-6078
ult	-6079
▁waypoint	-6080
▁hu	-6081
Priya	-6082
▁drills	-6083
▁section	-6084
ors	-6085
aris	-6086
▁hy	-6087
83	-6088
▁black	-6089
Groceries	-6090
▁amenity	-6091
▁Play	-6092
posit	-6093
▁де	-6094
▁nes	-6095
api	-6096
erlin	-6097
shop	-6098
▁tur	-6099
.7	-6100
click	-6101
▁broil	-6102
":0	-6103
▁cal	-6104
chic	-6105
casted	-6106
atur	-6107
mla	-6108
▁horiz	-6109
gnment	-6110
rif	-6111
).	-6112
eld	-6113
minute	-6114
alibrate	-6115
▁hotel	-6116
buy	-6117
▁hm	-6118
▁starts	-6119
Per	-6120
Automatically	-6121
▁sitting	-6122
crush	-6123
iem	-6124
lon	-6125
▁пос	-6126
▁dealer	-6127
▁provides	-6128
final	-6129
▁мне	-6130
▁forecasted	-6131
ship	-6132
mware	-6133
▁friend	-6134
house	-6135
ila	-6136
▁ou	-6137
ffect	-6138
▁This	-6139
▁bedroom	-6140
agy	-6141
extended	-6142
▁meine	-6143
▁UV	-6144
▁ž	-6145
ax	-6146
▁forecasts	-6147
ings	-6148
▁compartments	-6149
▁years	-6150
▁official	-6151
▁Wei	-6152
▁22	-6153
ager	-6154
жно	-6155
hy	-6156
chicago	-6157
▁veteri	-6158
tempo	-6159
▁visible	-6160
nsitive	-6161
":10}},{"	-6162
▁ze	-6163
cie	-6164
дь	-6165
пу	-6166
ці	-6167
▁mail	-6168
▁sn	-6169
sted	-6170
▁humidity	-6171
▁made	-6172
▁execute	-6173
▁está	-6174
▁metric	-6175
":25	-6176
ρά	-6177
▁под	-6178
Spotify	-6179
▁ти	-6180
rome	-6181
▁Sc	-6182
▁deacti	-6183
gate	-6184
Yuki	-6185
weight	-6186
▁shown	-6187
annual	-6188
Wipes	-6189
▁beginning	-6190
ony	-6191
application	-6192
▁sugge	-6193
▁contribution	-6194
draw	-6195
▁extended	-6196
▁@	-6197
▁aan	-6198
▁din	-6199
▁land	-6200
fil	-6201
▁income	-6202
▁Ro	-6203
.0}}]	-6204
remaining	-6205
▁Vi	-6206
▁hit	-6207
kri	-6208
▁sis	-6209
▁weekly	-6210
▁moj	-6211
▁pit	-6212
μέ	-6213
▁space	-6214
▁sunrise	-6215
Custom	-6216
▁signature	-6217
pr	-6218
timestamps	-6219
▁class	-6220
Hiroshi	-6221
ssä	-6222
са	-6223
_99"}}]	-6224
▁horizontal	-6225
▁bes	-6226
чно	-6227
"},"	-6228
country	-6229
dom	-6230
flow	-6231
▁temporary	-6232
ribute	-6233
Meeting	-6234
Fin	-6235
▁terminates	-6236
sarah	-6237
Length	-6238
utilities	-6239
76	-6240
▁ru	-6241
tenti	-6242
andro	-6243
▁soiled	-6244
▁akti	-6245
▁assist	-6246
▁Ich	-6247
lē	-6248
chart	-6249
cu	-6250
σω	-6251
▁об	-6252
▁indicator	-6253
▁prob	-6254
▁pä	-6255
▁mono	-6256
▁Tanaka	-6257
▁absol	-6258
▁κα	-6259
▁versus	-6260
ná	-6261
iring	-6262
▁Arjun	-6263
ipt	-6264
λα	-6265
noon	-6266
▁как	-6267
cre	-6268
54	-6269
▁Stre	-6270
▁11	-6271
▁zi	-6272
Kwame	-6273
ekk	-6274
▁sä	-6275
stroller	-6276
вер	-6277
▁tas	-6278
ople	-6279
dence	-6280
tric	-6281
sensors	-6282
▁Jap	-6283
uta	-6284
enti	-6285
rav	-6286
▁ker	-6287
cou	-6288
▁pad	-6289
▁Change	-6290
▁grocery	-6291
▁resting	-6292
łą	-6293
sage	-6294
ski	-6295
hel	-6296
▁dietary	-6297
▁għall	-6298
contribution	-6299
▁internet	-6300
ül	-6301
pha	-6302
ticker	-6303
visit	-6304
":"2023-10	-6305
▁ла	-6306
▁renewals	-6307
],	-6308
vä	-6309
▁бе	-6310
▁brand	-6311
ше	-6312
die	-6313
respon	-6314
▁preheat	-6315
бы	-6316
раз	-6317
sy	-6318
iving	-6319
vá	-6320
▁os	-6321
phones	-6322
midi	-6323
▁bright	-6324
icht	-6325
ран	-6326
gt	-6327
▁alright	-6328
▁ow	-6329
лушай	-6330
diag	-6331
iction	-6332
participants	-6333
He	-6334
sport	-6335
▁ná	-6336
custom	-6337
nto	-6338
tin	-6339
lar	-6340
tential	-6341
rum	-6342
▁expenses	-6343
00}},{"	-6344
▁old	-6345
▁Um	-6346
oul	-6347
ster	-6348
▁του	-6349
▁Wait	-6350
пе	-6351
▁assignee	-6352
andi	-6353
▁applies	-6354
rawd	-6355
▁fra	-6356
offline	-6357
lut	-6358
":"10	-6359
▁123	-6360
▁around	-6361
posure	-6362
allway	-6363
чу	-6364
din	-6365
90	-6366
▁tista	-6367
▁mano	-6368
▁-	-6369
▁parking	-6370
jet	-6371
▁closures	-6372
▁people	-6373
▁cream	-6374
formance	-6375
▁error	-6376
ение	-6377
ian	-6378
quid	-6379
ву	-6380
▁alle	-6381
lista	-6382
▁widgets	-6383
area	-6384
lj	-6385
.50	-6386
tron	-6387
жеш	-6388
2"}},{"	-6389
▁assignment	-6390
answers	-6391
":120}}]	-6392
▁burn	-6393
▁ones	-6394
▁mulle	-6395
ía	-6396
▁pattern	-6397
lek	-6398
▁vital	-6399
▁better	-6400
":4,"	-6401
▁receiving	-6402
Esti	-6403
▁three	-6404
ttp	-6405
▁Cancel	-6406
_01","	-6407
▁naj	-6408
▁responded	-6409
ów	-6410
▁bypass	-6411
▁czy	-6412
ét	-6413
▁example	-6414
stä	-6415
":"99	-6416
▁software	-6417
ās	-6418
mastery	-6419
▁kok	-6420
▁Make	-6421
▁override	-6422
▁mid	-6423
":0,"	-6424
▁мені	-6425
ulle	-6426
▁educ	-6427
inte	-6428
▁Sch	-6429
Must	-6430
▁πα	-6431
▁100","	-6432
percentage	-6433
▁complex	-6434
choices	-6435
▁bluetooth	-6436
▁mat	-6437
pid	-6438
λο	-6439
office	-6440
arma	-6441
▁szó	-6442
▁milestones	-6443
▁ener	-6444
лен	-6445
▁pen	-6446
hmed	-6447
▁fact	-6448
▁everyone	-6449
▁euh	-6450
ako	-6451
▁mean	-6452
▁original	-6453
pad	-6454
Link	-6455
▁feedings	-6456
▁aspect	-6457
▁pizza	-6458
funds	-6459
model	-6460
▁successful	-6461
▁solids	-6462
▁vote	-6463
ρω	-6464
▁tip	-6465
▁urgent	-6466
зо	-6467
▁vaj	-6468
llä	-6469
pur	-6470
!'	-6471
ska	-6472
ння	-6473
▁nearest	-6474
fter	-6475
ression	-6476
▁saaks	-6477
▁uit	-6478
nursing	-6479
▁"20	-6480
▁mess	-6481
mei	-6482
▁velo	-6483
▁modified	-6484
ään	-6485
▁afternoon	-6486
trate	-6487
Forces	-6488
▁deep	-6489
":8}}]	-6490
▁New	-6491
agen	-6492
ėt	-6493
▁Mark	-6494
▁board	-6495
▁Jag	-6496
gnific	-6497
▁protection	-6498
Extracts	-6499
identifier	-6500
onest	-6501
▁pixel	-6502
▁voltage	-6503
▁fuq	-6504
▁heated	-6505
▁cent	-6506
▁four	-6507
eš	-6508
OI	-6509
▁bat	-6510
▁broken	-6511
rooming	-6512
▁Ho	-6513
▁did	-6514
accepted	-6515
climbing	-6516
▁organize	-6517
fes	-6518
▁potential	-6519
lot	-6520
hose	-6521
▁liquid	-6522
vor	-6523
hl	-6524
три	-6525
▁ро	-6526
▁спис	-6527
▁ag	-6528
▁dispensing	-6529
▁outside	-6530
9,	-6531
▁had	-6532
ressed	-6533
▁carbon	-6534
ician	-6535
▁ai	-6536
tri	-6537
пиши	-6538
aring	-6539
onestly	-6540
performance	-6541
▁He	-6542
▁acting	-6543
▁invoices	-6544
▁jest	-6545
íts	-6546
ummer	-6547
▁Map	-6548
bob	-6549
▁YouTube	-6550
▁took	-6551
▁large	-6552
▁ό	-6553
words	-6554
πορ	-6555
kli	-6556
▁precipitation	-6557
ets	-6558
generated	-6559
▁exports	-6560
▁зна	-6561
▁Save	-6562
▁kom	-6563
loe	-6564
▁educational	-6565
▁alignment	-6566
overdue	-6567
▁mó	-6568
umb	-6569
▁those	-6570
esi	-6571
strenuous	-6572
▁olen	-6573
▁раз	-6574
ocuments	-6575
kö	-6576
▁blank	-6577
▁0.","	-6578
ję	-6579
▁positives	-6580
going	-6581
▁gas	-6582
8"}}]	-6583
ownt	-6584
-88	-6585
ке	-6586
šan	-6587
▁von	-6588
▁Gar	-6589
▁cool	-6590
▁apartment	-6591
9.	-6592
owntown	-6593
▁installation	-6594
▁Take	-6595
▁snack	-6596
arter	-6597
force	-6598
▁там	-6599
oogle	-6600
▁tired	-6601
rier	-6602
▁slu	-6603
mist	-6604
бу	-6605
maintain	-6606
μαι	-6607
":100,"	-6608
zione	-6609
umu	-6610
▁dem	-6611
▁tiegħ	-6612
maz	-6613
▁training	-6614
cil	-6615
serif	-6616
▁grab	-6617
▁ok	-6618
▁curated	-6619
▁capt	-6620
▁Det	-6621
▁To	-6622
composition	-6623
stan	-6624
▁medic	-6625
lio	-6626
▁surprise	-6627
▁accompany	-6628
recom	-6629
based	-6630
ology	-6631
compartment	-6632
prote	-6633
▁ongoing	-6634
▁pol	-6635
fitness	-6636
▁pak	-6637
▁accompanying	-6638
▁пока	-6639
▁als	-6640
quiet	-6641
ого	-6642
▁чи	-6643
▁strict	-6644
▁deposit	-6645
ird	-6646
▁interest	-6647
hard	-6648
▁desc	-6649
▁captured	-6650
arty	-6651
▁bud	-6652
λω	-6653
joni	-6654
ті	-6655
nst	-6656
▁się	-6657
▁Need	-6658
ched	-6659
▁charac	-6660
▁5,	-6661
▁creation	-6662
▁geographical	-6663
▁pane	-6664
со	-6665
▁road	-6666
▁voc	-6667
team	-6668
▁συ	-6669
▁moment	-6670
vad	-6671
▁Ku	-6672
_78	-6673
▁accident	-6674
fie	-6675
▁answe	-6676
▁calories	-6677
▁\	-6678
▁από	-6679
▁yes	-6680
":60,"	-6681
rer	-6682
▁meetings	-6683
▁bin	-6684
alla	-6685
zor	-6686
▁personalized	-6687
ras	-6688
hex	-6689
7,	-6690
▁0.	-6691
▁már	-6692
runing	-6693
leration	-6694
▁exposure	-6695
án	-6696
dietary	-6697
mel	-6698
мер	-6699
past	-6700
▁ny	-6701
▁tud	-6702
▁sports	-6703
▁AI	-6704
▁absolute	-6705
▁spaced	-6706
liness	-6707
▁tek	-6708
▁km	-6709
rar	-6710
▁cleanliness	-6711
purchase	-6712
▁han	-6713
ło	-6714
segment	-6715
▁requires	-6716
▁55	-6717
isi	-6718
▁configu	-6719
▁limits	-6720
Amara	-6721
ricul	-6722
▁earlier	-6723
▁investment	-6724
Netflix	-6725
mom	-6726
▁ш	-6727
orm	-6728
instru	-6729
▁Pot	-6730
tek	-6731
▁heb	-6732
▁weekend	-6733
▁won	-6734
▁са	-6735
▁Sofia	-6736
сі	-6737
lie	-6738
▁cli	-6739
zin	-6740
▁drive	-6741
▁Vo	-6742
ės	-6743
alo	-6744
▁answered	-6745
got	-6746
▁quite	-6747
owered	-6748
Do	-6749
▁launch	-6750
edIn	-6751
Moves	-6752
▁tar	-6753
▁los	-6754
pu	-6755
▁presets	-6756
▁wil	-6757
":12,"	-6758
▁ave	-6759
spital	-6760
ρέ	-6761
▁wire	-6762
łu	-6763
▁visits	-6764
-11	-6765
бва	-6766
both	-6767
▁tad	-6768
▁coming	-6769
xide	-6770
▁loud	-6771
▁fre	-6772
▁box	-6773
jak	-6774
▁pon	-6775
asset	-6776
aches	-6777
▁signific	-6778
▁For	-6779
▁providing	-6780
▁Enable	-6781
▁Un	-6782
sive	-6783
znam	-6784
▁Pe	-6785
▁від	-6786
itte	-6787
usted	-6788
▁hand	-6789
64	-6790
▁mute	-6791
▁skip	-6792
rio	-6793
kes	-6794
gym	-6795
рябва	-6796
▁classi	-6797
auk	-6798
εν	-6799
▁far	-6800
Desired	-6801
hover	-6802
mas	-6803
nts	-6804
▁zd	-6805
▁credit	-6806
▁nem	-6807
άλε	-6808
4.	-6809
▁editor	-6810
▁dok	-6811
":"88	-6812
▁small	-6813
▁tiegħi	-6814
edu	-6815
diagnostic	-6816
.0,"	-6817
▁тут	-6818
▁cs	-6819
▁presentation	-6820
rolled	-6821
▁proper	-6822
ig	-6823
▁στη	-6824
zation	-6825
Include	-6826
▁veterin	-6827
":120,"	-6828
▁ку	-6829
▁aqui	-6830
▁тре	-6831
ille	-6832
▁overdue	-6833
ira	-6834
:45	-6835
▁asleep	-6836
preset	-6837
Inter	-6838
πει	-6839
years	-6840
▁skal	-6841
▁ple	-6842
▁ski	-6843
▁were	-6844
▁finalize	-6845
▁wie	-6846
▁fund	-6847
▁Fa	-6848
statistics	-6849
▁monoxide	-6850
▁categorized	-6851
▁DOI	-6852
nip	-6853
▁extracted	-6854
_882","	-6855
šk	-6856
vit	-6857
_001","	-6858
▁Au	-6859
▁owner	-6860
ίσ	-6861
?'	-6862
▁här	-6863
gins	-6864
▁sve	-6865
▁tipo	-6866
▁voisitko	-6867
_2	-6868
▁fal	-6869
60	-6870
garden	-6871
▁мину	-6872
▁endpoint	-6873
▁pick	-6874
▁пу	-6875
ναι	-6876
ctron	-6877
▁honestly	-6878
▁szóval	-6879
▁ut	-6880
completion	-6881
":"4	-6882
atten	-6883
▁shift	-6884
▁repe	-6885
tok	-6886
став	-6887
ikia	-6888
iex	-6889
rawling	-6890
▁ekran	-6891
▁mie	-6892
vje	-6893
▁wa	-6894
▁sync	-6895
_882	-6896
▁hyper	-6897
łącz	-6898
▁uma	-6899
▁mun	-6900
▁1.0","	-6901
▁initialize	-6902
▁chi	-6903
pends	-6904
▁peux	-6905
4'	-6906
Any	-6907
owl	-6908
lobal	-6909
esz	-6910
▁pruning	-6911
ang	-6912
▁bez	-6913
▁stroller	-6914
▁gran	-6915
ona	-6916
▁modes	-6917
cision	-6918
aching	-6919
▁Netflix	-6920
taa	-6921
▁κά	-6922
▁dla	-6923
cert	-6924
▁classification	-6925
ги	-6926
euver	-6927
mountain	-6928
▁tax	-6929
coverage	-6930
▁png	-6931
▁Look	-6932
▁85	-6933
▁verific	-6934
▁2,	-6935
▁five	-6936
▁мі	-6937
backlight	-6938
▁hap	-6939
▁Read	-6940
▁mechanic	-6941
Begins	-6942
▁tik	-6943
ön	-6944
ola	-6945
▁AM	-6946
ande	-6947
acon	-6948
ris	-6949
SI	-6950
gery	-6951
▁pode	-6952
ER	-6953
▁180	-6954
▁describing	-6955
▁arrange	-6956
onne	-6957
▁dé	-6958
Utilities	-6959
▁doing	-6960
ята	-6961
wo	-6962
8:30	-6963
▁mert	-6964
uma	-6965
":3}},{"	-6966
▁75	-6967
▁gram	-6968
▁nastav	-6969
▁gali	-6970
musical	-6971
τό	-6972
āj	-6973
▁technician	-6974
ena	-6975
acation	-6976
rench	-6977
Tokyo	-6978
cloud	-6979
cesito	-6980
éri	-6981
▁molim	-6982
nda	-6983
▁siin	-6984
sca	-6985
gur	-6986
▁sprawd	-6987
▁este	-6988
▁pan	-6989
precision	-6990
ndo	-6991
locked	-6992
signature	-6993
▁inf	-6994
elena	-6995
pop	-6996
▁minutos	-6997
én	-6998
▁triggered	-6999
▁trave	-7000
▁mám	-7001
▁completing	-7002
▁contained	-7003
acing	-7004
скам	-7005
▁будь	-7006
rais	-7007
kem	-7008
urnal	-7009
▁Give	-7010
▁вы	-7011
ень	-7012
▁prior	-7013
▁'4	-7014
land	-7015
uten	-7016
utive	-7017
▁brushes	-7018
smile	-7019
]]	-7020
čiau	-7021
▁vš	-7022
▁command	-7023
▁growth	-7024
▁που	-7025
csv	-7026
▁UI	-7027
▁freshness	-7028
▁17	-7029
IDI	-7030
numbers	-7031
bes	-7032
lejandro	-7033
reshes	-7034
Elena	-7035
áll	-7036
▁fet	-7037
▁codes	-7038
▁Hej	-7039
▁crib	-7040
No	-7041
▁rá	-7042
▁str	-7043
wn	-7044
▁veterinary	-7045
Sho	-7046
▁mor	-7047
▁чтобы	-7048
▁hur	-7049
хай	-7050
ного	-7051
_001	-7052
▁memo	-7053
▁spre	-7054
nia	-7055
▁Hel	-7056
scheduled	-7057
":"123	-7058
▁waste	-7059
▁ба	-7060
▁dans	-7061
anese	-7062
▁jazz	-7063
sx	-7064
Difficulty	-7065
▁statu	-7066
overy	-7067
anie	-7068
▁ласка	-7069
cture	-7070
offee	-7071
amento	-7072
▁goals	-7073
▁present	-7074
▁intended	-7075
ιο	-7076
▁ud	-7077
▁agora	-7078
▁Tik	-7079
▁favore	-7080
vol	-7081
▁še	-7082
▁complexity	-7083
▁exha	-7084
brake	-7085
▁Remind	-7086
▁pauses	-7087
▁vil	-7088
▁Fahrenheit	-7089
▁dag	-7090
here	-7091
лко	-7092
▁ale	-7093
psi	-7094
āk	-7095
6","	-7096
tä	-7097
xlsx	-7098
▁MIDI	-7099
mine	-7100
missions	-7101
μο	-7102
▁Man	-7103
▁Street	-7104
▁ah	-7105
keting	-7106
▁resets	-7107
":90}}]	-7108
▁αν	-7109
▁τις	-7110
ká	-7111
gging	-7112
▁dire	-7113
airobi	-7114
▁3,	-7115
▁avec	-7116
_90	-7117
▁пла	-7118
-123	-7119
▁costs	-7120
▁bal	-7121
είς	-7122
omo	-7123
бе	-7124
verify	-7125
ний	-7126
amara	-7127
secutive	-7128
cific	-7129
ėtum	-7130
▁prep	-7131
▁capture	-7132
▁breaks	-7133
▁school	-7134
eg	-7135
ías	-7136
▁πο	-7137
anje	-7138
▁гра	-7139
▁lost	-7140
thering	-7141
▁resume	-7142
▁rolling	-7143
▁powered	-7144
8.	-7145
▁proszę	-7146
riculum	-7147
tie	-7148
7.	-7149
▁dam	-7150
klo	-7151
risk	-7152
istra	-7153
roll	-7154
imal	-7155
▁ovaj	-7156
FF	-7157
▁gener	-7158
▁hea	-7159
mike	-7160
▁dab	-7161
▁ry	-7162
▁eine	-7163
▁exceed	-7164
expiration	-7165
▁все	-7166
guests	-7167
▁transit	-7168
št	-7169
nika	-7170
▁Quick	-7171
▁identities	-7172
▁5000	-7173
▁little	-7174
":1,"	-7175
":15}},{"	-7176
mä	-7177
alpha	-7178
vening	-7179
▁так	-7180
▁chat	-7181
mute	-7182
▁cups	-7183
▁bowl	-7184
▁very	-7185
▁why	-7186
ją	-7187
velocity	-7188
nis	-7189
nam	-7190
▁feel	-7191
▁Kofi	-7192
▁good	-7193
▁force	-7194
_456	-7195
▁Project	-7196
▁devi	-7197
rin	-7198
mates	-7199
nos	-7200
▁dne	-7201
▁curriculum	-7202
▁lab	-7203
Qu	-7204
▁advanced	-7205
▁kep	-7206
▁""}}}]	-7207
▁urgency	-7208
coordinates	-7209
▁kr	-7210
ker	-7211
_88","	-7212
fespan	-7213
lé	-7214
▁paths	-7215
▁bar	-7216
-3	-7217
кти	-7218
aly	-7219
▁час	-7220
▁includes	-7221
▁upon	-7222
ор	-7223
lich	-7224
ок	-7225
nta	-7226
ier	-7227
▁ένα	-7228
":200}}]	-7229
maps	-7230
cks	-7231
dem	-7232
pencil	-7233
▁curi	-7234
usta	-7235
nthe	-7236
heating	-7237
▁transition	-7238
▁dra	-7239
▁είναι	-7240
▁mam	-7241
▁Est	-7242
▁akt	-7243
ото	-7244
▁significant	-7245
▁theme	-7246
▁labe	-7247
sequence	-7248
ения	-7249
▁več	-7250
ote	-7251
▁standing	-7252
ua	-7253
▁Twitch	-7254
▁må	-7255
▁Santiago	-7256
lož	-7257
άρ	-7258
▁moram	-7259
hir	-7260
πορείς	-7261
dag	-7262
▁remin	-7263
▁overlays	-7264
▁minuta	-7265
▁volumetric	-7266
packing	-7267
Al	-7268
console	-7269
▁stra	-7270
▁Disable	-7271
▁čas	-7272
▁lifespan	-7273
bit	-7274
▁né	-7275
▁під	-7276
▁vē	-7277
▁repetition	-7278
▁echt	-7279
▁saaksid	-7280
vey	-7281
anda	-7282
hol	-7283
στ	-7284
▁layers	-7285
":8,"	-7286
▁biex	-7287
▁Sk	-7288
":20}},{"	-7289
das	-7290
▁technique	-7291
лухай	-7292
12	-7293
γρα	-7294
inspection	-7295
Clears	-7296
▁spot	-7297
▁occurre	-7298
▁pää	-7299
▁looks	-7300
oda	-7301
▁kit	-7302
гу	-7303
meat	-7304
assignment	-7305
▁patterns	-7306
uesday	-7307
oli	-7308
▁notify	-7309
bypass	-7310
kki	-7311
▁prze	-7312
▁fix	-7313
ца	-7314
ryp	-7315
▁coo	-7316
▁kontakt	-7317
су	-7318
alibration	-7319
8,	-7320
▁250	-7321
":14	-7322
σα	-7323
reat	-7324
▁TikTok	-7325
▁labeled	-7326
▁net	-7327
▁shel	-7328
▁integers	-7329
▁10","	-7330
▁ul	-7331
mov	-7332
rit	-7333
Preferred	-7334
▁restrictions	-7335
▁season	-7336
▁velocity	-7337
▁daj	-7338
▁exceeds	-7339
urry	-7340
_01"}}]	-7341
-05-1	-7342
▁consecutive	-7343
▁something	-7344
▁bru	-7345
isa	-7346
▁galėtum	-7347
hr	-7348
":30}},{"	-7349
etailed	-7350
Determin	-7351
▁expla	-7352
Detailed	-7353
more	-7354
вто	-7355
Category	-7356
▁mp	-7357
Guest	-7358
▁evalu	-7359
zet	-7360
Determines	-7361
час	-7362
olicy	-7363
ghter	-7364
biking	-7365
Lists	-7366
":"5	-7367
▁suis	-7368
wei	-7369
▁Post	-7370
Resizes	-7371
мк	-7372
▁successfully	-7373
calibrate	-7374
lad	-7375
bujem	-7376
▁gate	-7377
orts	-7378
":100}}]	-7379
▁η	-7380
▁Fi	-7381
ges	-7382
lled	-7383
orie	-7384
▁lok	-7385
":150,"	-7386
":7,"	-7387
▁produ	-7388
▁hear	-7389
pit	-7390
▁poč	-7391
":55	-7392
āt	-7393
▁naps	-7394
▁poš	-7395
▁aby	-7396
ła	-7397
OC	-7398
previously	-7399
▁catering	-7400
▁przy	-7401
asi	-7402
▁meaning	-7403
сть	-7404
ната	-7405
▁sle	-7406
used	-7407
▁2025	-7408
anya	-7409
▁chosen	-7410
questions	-7411
amo	-7412
▁addition	-7413
milk	-7414
σεις	-7415
]"},	-7416
▁kor	-7417
":0.5}}]	-7418
200	-7419
."}},{"	-7420
вай	-7421
kä	-7422
▁mio	-7423
▁smoothie	-7424
lit	-7425
access	-7426
▁relax	-7427
▁warm	-7428
▁aus	-7429
▁té	-7430
▁container	-7431
čen	-7432
▁vid	-7433
▁minuti	-7434
":"555-	-7435
▁pār	-7436
▁setup	-7437
▁enough	-7438
preserve	-7439
lang	-7440
▁fertilizing	-7441
bl	-7442
ró	-7443
▁kept	-7444
amente	-7445
":6}}]	-7446
TC	-7447
ργ	-7448
sharing	-7449
▁sono	-7450
▁feels	-7451
WiFi	-7452
nums	-7453
▁connect	-7454
▁reminded	-7455
appointment	-7456
▁cam	-7457
ām	-7458
▁nou	-7459
▁mach	-7460
▁21	-7461
▁gaming	-7462
fficult	-7463
▁supply	-7464
anto	-7465
Ref	-7466
▁tá	-7467
":25}}]	-7468
▁selle	-7469
azz	-7470
zia	-7471
▁delayed	-7472
▁exhausted	-7473
▁bate	-7474
▁cel	-7475
▁sor	-7476
":25,"	-7477
▁calculates	-7478
ēr	-7479
▁aw	-7480
▁displays	-7481
":"2023-11	-7482
▁packed	-7483
kar	-7484
▁ban	-7485
istory	-7486
▁sistem	-7487
▁preheating	-7488
▁compression	-7489
▁hands	-7490
жалу	-7491
▁artistic	-7492
▁occurrence	-7493
▁eyes	-7494
Chen	-7495
pir	-7496
▁projek	-7497
olla	-7498
sensitive	-7499
▁Im	-7500
We	-7501
égys	-7502
▁Kuule	-7503
▁Maple	-7504
ima	-7505
κα	-7506
bin	-7507
▁zá	-7508
▁cell	-7509
нь	-7510
▁shoot	-7511
":"2023-10-2	-7512
κο	-7513
cat	-7514
rea	-7515
_5	-7516
▁paper	-7517
fen	-7518
8}}]	-7519
boss	-7520
▁resi	-7521
":22	-7522
▁laik	-7523
growth	-7524
ación	-7525
▁Għ	-7526
nji	-7527
ēc	-7528
сни	-7529
atsApp	-7530
oka	-7531
▁ré	-7532
▁overall	-7533
undry	-7534
ctronic	-7535
atti	-7536
nities	-7537
▁wat	-7538
▁potresti	-7539
▁IP	-7540
▁len	-7541
▁floor	-7542
▁ba	-7543
jd	-7544
ет	-7545
▁optim	-7546
▁нужно	-7547
mes	-7548
▁ruti	-7549
▁jako	-7550
ilo	-7551
▁forgot	-7552
ния	-7553
▁proje	-7554
▁sorted	-7555
▁sens	-7556
urser	-7557
жалуй	-7558
▁кон	-7559
▁best	-7560
BC	-7561
▁bei	-7562
raz	-7563
▁conver	-7564
pensive	-7565
▁Il	-7566
":"2025	-7567
▁aim	-7568
▁Mari	-7569
▁City	-7570
umbai	-7571
▁deactivate	-7572
▁probability	-7573
▁mim	-7574
▁hab	-7575
▁headphones	-7576
orders	-7577
▁sv	-7578
▁jsem	-7579
▁market	-7580
ée	-7581
▁sul	-7582
жалуйста	-7583
_01.	-7584
▁4,	-7585
▁timing	-7586
▁Comp	-7587
nippet	-7588
0","	-7589
▁draft	-7590
":7}}]	-7591
beat	-7592
▁VOC	-7593
dar	-7594
watercolor	-7595
▁payments	-7596
▁field	-7597
fik	-7598
▁vyp	-7599
ssive	-7600
▁ost	-7601
▁bou	-7602
▁heatwave	-7603
▁begins	-7604
▁collaboration	-7605
jor	-7606
Instagram	-7607
lub	-7608
nem	-7609
sunlight	-7610
jury	-7611
▁receipt	-7612
:30"}}]	-7613
гра	-7614
group	-7615
war	-7616
bal	-7617
vide	-7618
urger	-7619
▁answers	-7620
iro	-7621
onn	-7622
▁ди	-7623
bool	-7624
▁wireless	-7625
▁sli	-7626
ador	-7627
iek	-7628
τί	-7629
Mei	-7630
▁asking	-7631
стро	-7632
▁peak	-7633
sche	-7634
0,	-7635
:00"}},{"	-7636
":500}}]	-7637
vn	-7638
sv	-7639
είο	-7640
ksi	-7641
▁behind	-7642
pod	-7643
▁mé	-7644
▁ig	-7645
▁missed	-7646
pal	-7647
ggi	-7648
dosage	-7649
ffer	-7650
вери	-7651
tis	-7652
▁yesterday	-7653
itar	-7654
▁PSI	-7655
▁bitrate	-7656
▁fetched	-7657
ket	-7658
Estimates	-7659
▁tot	-7660
▁temp	-7661
tru	-7662
elance	-7663
▁αυ	-7664
automated	-7665
▁nach	-7666
baby	-7667
▁attention	-7668
sented	-7669
scord	-7670
▁alg	-7671
3.	-7672
▁sid	-7673
ката	-7674
servation	-7675
▁anymore	-7676
gal	-7677
äng	-7678
pts	-7679
":2}},{"	-7680
▁ly	-7681
yearly	-7682
wise	-7683
quare	-7684
_001"}}]	-7685
▁collected	-7686
avid	-7687
μά	-7688
▁kä	-7689
▁ot	-7690
▁statuses	-7691
ursery	-7692
▁sl	-7693
ngo	-7694
":500,"	-7695
▁kui	-7696
yota	-7697
▁affect	-7698
▁customized	-7699
oco	-7700
▁viel	-7701
▁fire	-7702
▁če	-7703
▁completely	-7704
▁muszę	-7705
smu	-7706
▁Berlin	-7707
cran	-7708
ån	-7709
▁παρα	-7710
ар	-7711
lpha	-7712
▁ol	-7713
ayed	-7714
▁apli	-7715
try	-7716
lok	-7717
сте	-7718
▁sobre	-7719
ii	-7720
jl	-7721
tar	-7722
jä	-7723
▁nech	-7724
▁искам	-7725
ρε	-7726
▁prin	-7727
▁totally	-7728
apture	-7729
lite	-7730
▁nas	-7731
▁της	-7732
retain	-7733
29	-7734
IN	-7735
▁nii	-7736
ться	-7737
▁5","	-7738
Downloads	-7739
▁studio	-7740
ending	-7741
▁same	-7742
▁upp	-7743
▁vitals	-7744
▁efter	-7745
▁зараз	-7746
junk	-7747
readings	-7748
.00	-7749
6,	-7750
buie	-7751
▁evening	-7752
кра	-7753
▁Air	-7754
▁como	-7755
έλω	-7756
apcs	-7757
▁можеш	-7758
▁ikke	-7759
▁headcount	-7760
genre	-7761
ului	-7762
▁tú	-7763
▁kell	-7764
▁kod	-7765
▁shot	-7766
hick	-7767
▁poz	-7768
":"22	-7769
▁purchased	-7770
rad	-7771
▁fly	-7772
▁nep	-7773
▁vak	-7774
▁треба	-7775
e	-7776
"	-7777
t	-7778
▁	-7779
r	-7780
i	-7781
a	-7782
n	-7783
s	-7784
o	-7785
:	-7786
d	-7787
p	-7788
c	-7789
,	-7790
u	-7791
m	-7792
l	-7793
h	-7794
g	-7795
{	-7796
}	-7797
f	-7798
y	-7799
_	-7800
.	-7801
b	-7802
q	-7803
'	-7804
v	-7805
k	-7806
w	-7807
T	-7808
[	-7809
]	-7810
x	-7811
S	-7812
0	-7813
C	-7814
R	-7815
z	-7816
j	-7817
-	-7818
D	-7819
A	-7820
O	-7821
I	-7822
1	-7823
N	-7824
W	-7825
P	-7826
M	-7827
2	-7828
G	-7829
5	-7830
L	-7831
E	-7832
F	-7833
а	-7834
U	-7835
о	-7836
3	-7837
Y	-7838
(	-7839
)	-7840
H	-7841
и	-7842
?	-7843
/	-7844
4	-7845
V	-7846
е	-7847
т	-7848
н	-7849
B	-7850
9	-7851
8	-7852
р	-7853
с	-7854
7	-7855
в	-7856
к	-7857
6	-7858
ä	-7859
л	-7860
м	-7861
д	-7862
α	-7863
п	-7864
у	-7865
é	-7866
á	-7867
ο	-7868
ε	-7869
τ	-7870
з	-7871
K	-7872
ι	-7873
š	-7874
J	-7875
я	-7876
í	-7877
Q	-7878
і	-7879
ν	-7880
č	-7881
σ	-7882
ρ	-7883
ö	-7884
й	-7885
ч	-7886
ă	-7887
б	-7888
μ	-7889
г	-7890
ž	-7891
ħ	-7892
ā	-7893
π	-7894
å	-7895
ь	-7896
ó	-7897
κ	-7898
=	-7899
λ	-7900
ж	-7901
η	-7902
υ	-7903
ί	-7904
ς	-7905
ü	-7906
ά	-7907
ą	-7908
γ	-7909
Z	-7910
ш	-7911
;	-7912
х	-7913
ę	-7914
έ	-7915
ē	-7916
ό	-7917
ю	-7918
@	-7919
ω	-7920
ц	-7921
ī	-7922
!	-7923
ъ	-7924
ы	-7925
ł	-7926
ú	-7927
\	-7928
ė	-7929
